{
  "version": "1.0",
  "truncation": null,
  "padding": null,
  "added_tokens": [
    {
      "id": 0,
      "content": "[PAD]",
      "single_word": false,
      "lstrip": false,
      "rstrip": false,
      "normalized": false,
      "special": true
    },
    {
      "id": 1,
      "content": "[UNK]",
      "single_word": false,
      "lstrip": false,
      "rstrip": false,
      "normalized": false,
      "special": true
    },
    {
      "id": 2,
      "content": "[BOS]",
      "single_word": false,
      "lstrip": false,
      "rstrip": false,
      "normalized": false,
      "special": true
    },
    {
      "id": 3,
      "content": "[EOS]",
      "single_word": false,
      "lstrip": false,
      "rstrip": false,
      "normalized": false,
      "special": true
    },
    {
      "id": 4,
      "content": "[SEP]",
      "single_word": false,
      "lstrip": false,
      "rstrip": false,
      "normalized": false,
      "special": true
    },
    {
      "id": 5,
      "content": "[CLS]",
      "single_word": false,
      "lstrip": false,
      "rstrip": false,
      "normalized": false,
      "special": true
    }
  ],
  "normalizer": {
    "type": "Sequence",
    "normalizers": [
      {
        "type": "NFKC"
      }
    ]
  },
  "pre_tokenizer": {
    "type": "Whitespace"
  },
  "post_processor": {
    "type": "TemplateProcessing",
    "single": [
      {
        "SpecialToken": {
          "id": "[BOS]",
          "type_id": 0
        }
      },
      {
        "Sequence": {
          "id": "A",
          "type_id": 0
        }
      },
      {
        "SpecialToken": {
          "id": "[EOS]",
          "type_id": 0
        }
      }
    ],
    "pair": [
      {
        "SpecialToken": {
          "id": "[BOS]",
          "type_id": 0
        }
      },
      {
        "Sequence": {
          "id": "A",
          "type_id": 0
        }
      },
      {
        "SpecialToken": {
          "id": "[SEP]",
          "type_id": 0
        }
      },
      {
        "Sequence": {
          "id": "B",
          "type_id": 1
        }
      },
      {
        "SpecialToken": {
          "id": "[EOS]",
          "type_id": 1
        }
      }
    ],
    "special_tokens": {
      "[BOS]": {
        "id": "[BOS]",
        "ids": [
          2
        ],
        "tokens": [
          "[BOS]"
        ]
      },
      "[EOS]": {
        "id": "[EOS]",
        "ids": [
          3
        ],
        "tokens": [
          "[EOS]"
        ]
      },
      "[SEP]": {
        "id": "[SEP]",
        "ids": [
          4
        ],
        "tokens": [
          "[SEP]"
        ]
      }
    }
  },
  "decoder": null,
  "model": {
    "type": "BPE",
    "dropout": null,
    "unk_token": "[UNK]",
    "continuing_subword_prefix": null,
    "end_of_word_suffix": null,
    "fuse_unk": false,
    "byte_fallback": true,
    "vocab": {
      "[PAD]": 0,
      "[UNK]": 1,
      "[BOS]": 2,
      "[EOS]": 3,
      "[SEP]": 4,
      "[CLS]": 5,
      "!": 6,
      "\"": 7,
      "#": 8,
      "$": 9,
      "%": 10,
      "&": 11,
      "'": 12,
      "(": 13,
      ")": 14,
      "*": 15,
      "+": 16,
      ",": 17,
      "-": 18,
      ".": 19,
      "/": 20,
      "0": 21,
      "1": 22,
      "2": 23,
      "3": 24,
      "4": 25,
      "5": 26,
      "6": 27,
      "7": 28,
      "8": 29,
      "9": 30,
      ":": 31,
      ";": 32,
      "<": 33,
      "=": 34,
      ">": 35,
      "?": 36,
      "@": 37,
      "A": 38,
      "B": 39,
      "C": 40,
      "D": 41,
      "E": 42,
      "F": 43,
      "G": 44,
      "H": 45,
      "I": 46,
      "J": 47,
      "K": 48,
      "L": 49,
      "M": 50,
      "N": 51,
      "O": 52,
      "P": 53,
      "Q": 54,
      "R": 55,
      "S": 56,
      "T": 57,
      "U": 58,
      "V": 59,
      "W": 60,
      "X": 61,
      "Y": 62,
      "Z": 63,
      "[": 64,
      "\\": 65,
      "]": 66,
      "^": 67,
      "_": 68,
      "a": 69,
      "b": 70,
      "c": 71,
      "d": 72,
      "e": 73,
      "f": 74,
      "g": 75,
      "h": 76,
      "i": 77,
      "j": 78,
      "k": 79,
      "l": 80,
      "m": 81,
      "n": 82,
      "o": 83,
      "p": 84,
      "q": 85,
      "r": 86,
      "s": 87,
      "t": 88,
      "u": 89,
      "v": 90,
      "w": 91,
      "x": 92,
      "y": 93,
      "z": 94,
      "{": 95,
      "|": 96,
      "}": 97,
      "~": 98,
      "¢": 99,
      "¥": 100,
      "§": 101,
      "©": 102,
      "«": 103,
      "®": 104,
      "°": 105,
      "·": 106,
      "»": 107,
      "Ç": 108,
      "×": 109,
      "Ü": 110,
      "ß": 111,
      "à": 112,
      "â": 113,
      "ä": 114,
      "æ": 115,
      "ç": 116,
      "è": 117,
      "é": 118,
      "ê": 119,
      "ë": 120,
      "î": 121,
      "ï": 122,
      "ò": 123,
      "ô": 124,
      "ö": 125,
      "ù": 126,
      "û": 127,
      "ü": 128,
      "Α": 129,
      "Φ": 130,
      "α": 131,
      "δ": 132,
      "ε": 133,
      "η": 134,
      "λ": 135,
      "ο": 136,
      "ς": 137,
      "ψ": 138,
      "ἶ": 139,
      "ὕ": 140,
      "‐": 141,
      "–": 142,
      "—": 143,
      "‘": 144,
      "’": 145,
      "“": 146,
      "”": 147,
      "•": 148,
      "⁄": 149,
      "→": 150,
      "▧": 151,
      "▸": 152,
      "🠖": 153,
      "th": 154,
      "in": 155,
      "on": 156,
      "re": 157,
      "the": 158,
      "an": 159,
      "ti": 160,
      "en": 161,
      "er": 162,
      "al": 163,
      "es": 164,
      "is": 165,
      "at": 166,
      "or": 167,
      "ing": 168,
      "of": 169,
      "tion": 170,
      "it": 171,
      "and": 172,
      "ou": 173,
      "to": 174,
      "st": 175,
      "le": 176,
      "se": 177,
      "ce": 178,
      "ar": 179,
      "ac": 180,
      "as": 181,
      "ve": 182,
      "ic": 183,
      "be": 184,
      "ro": 185,
      "ed": 186,
      "ent": 187,
      "con": 188,
      "ation": 189,
      "ly": 190,
      "si": 191,
      "me": 192,
      "ow": 193,
      "wh": 194,
      "de": 195,
      "ex": 196,
      "co": 197,
      "that": 198,
      "for": 199,
      "ct": 200,
      "ter": 201,
      "li": 202,
      "wi": 203,
      "di": 204,
      "vi": 205,
      "ch": 206,
      "per": 207,
      "un": 208,
      "ver": 209,
      "res": 210,
      "he": 211,
      "mp": 212,
      "ra": 213,
      "su": 214,
      "ha": 215,
      "ity": 216,
      "ment": 217,
      "ess": 218,
      "no": 219,
      "with": 220,
      "mo": 221,
      "fe": 222,
      "gh": 223,
      "ci": 224,
      "ul": 225,
      "ur": 226,
      "ab": 227,
      "are": 228,
      "act": 229,
      "ut": 230,
      "il": 231,
      "so": 232,
      "ma": 233,
      "pro": 234,
      "do": 235,
      "ru": 236,
      "we": 237,
      "ence": 238,
      "pe": 239,
      "sel": 240,
      "ate": 241,
      "us": 242,
      "ist": 243,
      "ne": 244,
      "ld": 245,
      "ad": 246,
      "ther": 247,
      "ri": 248,
      "ge": 249,
      "tic": 250,
      "ir": 251,
      "qu": 252,
      "lo": 253,
      "not": 254,
      "tive": 255,
      "all": 256,
      "self": 257,
      "po": 258,
      "int": 259,
      "du": 260,
      "Wh": 261,
      "ap": 262,
      "ll": 263,
      "ure": 264,
      "ren": 265,
      "ay": 266,
      "em": 267,
      "ract": 268,
      "by": 269,
      "tions": 270,
      "gn": 271,
      "can": 272,
      "sion": 273,
      "rom": 274,
      "cont": 275,
      "our": 276,
      "The": 277,
      "ts": 278,
      "ough": 279,
      "from": 280,
      "der": 281,
      "ich": 282,
      "ractal": 283,
      "ke": 284,
      "does": 285,
      "Th": 286,
      "out": 287,
      "this": 288,
      "but": 289,
      "inter": 290,
      "its": 291,
      "which": 292,
      "How": 293,
      "wor": 294,
      "hi": 295,
      "fin": 296,
      "pl": 297,
      "enti": 298,
      "ph": 299,
      "ations": 300,
      "rel": 301,
      "ffe": 302,
      "lu": 303,
      "ous": 304,
      "ical": 305,
      "cur": 306,
      "cep": 307,
      "ain": 308,
      "id": 309,
      "man": 310,
      "par": 311,
      "ism": 312,
      "sy": 313,
      "ev": 314,
      "havi": 315,
      "havior": 316,
      "ces": 317,
      "ould": 318,
      "one": 319,
      "ob": 320,
      "pres": 321,
      "el": 322,
      "behavior": 323,
      "What": 324,
      "ance": 325,
      "peri": 326,
      "fo": 327,
      "je": 328,
      "ant": 329,
      "am": 330,
      "comp": 331,
      "form": 332,
      "dual": 333,
      "stru": 334,
      "ness": 335,
      "tern": 336,
      "their": 337,
      "ali": 338,
      "fractal": 339,
      "ca": 340,
      "AI": 341,
      "tr": 342,
      "com": 343,
      "other": 344,
      "experi": 345,
      "oun": 346,
      "cess": 347,
      "mon": 348,
      "ction": 349,
      "ust": 350,
      "op": 351,
      "ty": 352,
      "ach": 353,
      "fic": 354,
      "ol": 355,
      "cre": 356,
      "od": 357,
      "you": 358,
      "te": 359,
      "now": 360,
      "pre": 361,
      "ally": 362,
      "end": 363,
      "use": 364,
      "how": 365,
      "sci": 366,
      "ves": 367,
      "indi": 368,
      "sive": 369,
      "In": 370,
      "struct": 371,
      "they": 372,
      "min": 373,
      "gni": 374,
      "king": 375,
      "ght": 376,
      "pa": 377,
      "This": 378,
      "rough": 379,
      "est": 380,
      "indivi": 381,
      "dis": 382,
      "thing": 383,
      "stem": 384,
      "ject": 385,
      "able": 386,
      "time": 387,
      "under": 388,
      "spe": 389,
      "way": 390,
      "gu": 391,
      "ere": 392,
      "imp": 393,
      "pon": 394,
      "more": 395,
      "recur": 396,
      "individual": 397,
      "who": 398,
      "system": 399,
      "ality": 400,
      "nat": 401,
      "will": 402,
      "ever": 403,
      "ble": 404,
      "ide": 405,
      "like": 406,
      "ound": 407,
      "pr": 408,
      "through": 409,
      "if": 410,
      "sa": 411,
      "into": 412,
      "ers": 413,
      "des": 414,
      "fferen": 415,
      "know": 416,
      "ated": 417,
      "exist": 418,
      "them": 419,
      "go": 420,
      "differen": 421,
      "ges": 422,
      "cogni": 423,
      "infor": 424,
      "im": 425,
      "bal": 426,
      "ctive": 427,
      "ties": 428,
      "dist": 429,
      "than": 430,
      "ility": 431,
      "stand": 432,
      "have": 433,
      "bet": 434,
      "when": 435,
      "ory": 436,
      "ans": 437,
      "reinfor": 438,
      "ational": 439,
      "aw": 440,
      "It": 441,
      "ser": 442,
      "these": 443,
      "ving": 444,
      "sed": 445,
      "et": 446,
      "led": 447,
      "str": 448,
      "what": 449,
      "ating": 450,
      "age": 451,
      "ten": 452,
      "ener": 453,
      "ful": 454,
      "has": 455,
      "recursive": 456,
      "gi": 457,
      "ates": 458,
      "chan": 459,
      "om": 460,
      "tim": 461,
      "ary": 462,
      "work": 463,
      "may": 464,
      "ard": 465,
      "istic": 466,
      "where": 467,
      "respon": 468,
      "fra": 469,
      "ments": 470,
      "um": 471,
      "only": 472,
      "tru": 473,
      "ys": 474,
      "some": 475,
      "experience": 476,
      "log": 477,
      "son": 478,
      "fi": 479,
      "percep": 480,
      "attern": 481,
      "red": 482,
      "ong": 483,
      "pattern": 484,
      "sha": 485,
      "ite": 486,
      "cho": 487,
      "though": 488,
      "within": 489,
      "sen": 490,
      "ding": 491,
      "any": 492,
      "bo": 493,
      "sh": 494,
      "such": 495,
      "understand": 496,
      "ween": 497,
      "ion": 498,
      "ort": 499,
      "over": 500,
      "between": 501,
      "process": 502,
      "ine": 503,
      "fle": 504,
      "ext": 505,
      "cause": 506,
      "present": 507,
      "ven": 508,
      "object": 509,
      "ses": 510,
      "gr": 511,
      "ack": 512,
      "lear": 513,
      "scious": 514,
      "there": 515,
      "just": 516,
      "sub": 517,
      "val": 518,
      "cor": 519,
      "ple": 520,
      "fun": 521,
      "being": 522,
      "comple": 523,
      "verbal": 524,
      "nature": 525,
      "without": 526,
      "ari": 527,
      "itself": 528,
      "allow": 529,
      "ori": 530,
      "ences": 531,
      "ta": 532,
      "uman": 533,
      "conscious": 534,
      "ting": 535,
      "mean": 536,
      "ish": 537,
      "Fractal": 538,
      "pos": 539,
      "gre": 540,
      "world": 541,
      "ning": 542,
      "enc": 543,
      "ile": 544,
      "reinforce": 545,
      "ew": 546,
      "own": 547,
      "person": 548,
      "soci": 549,
      "cer": 550,
      "concep": 551,
      "uni": 552,
      "heren": 553,
      "your": 554,
      "new": 555,
      "human": 556,
      "every": 557,
      "whole": 558,
      "ps": 559,
      "ual": 560,
      "align": 561,
      "rather": 562,
      "ability": 563,
      "relations": 564,
      "pp": 565,
      "tional": 566,
      "flu": 567,
      "same": 568,
      "actions": 569,
      "my": 570,
      "les": 571,
      "ason": 572,
      "feel": 573,
      "ved": 574,
      "action": 575,
      "cri": 576,
      "defin": 577,
      "fa": 578,
      "aware": 579,
      "would": 580,
      "perception": 581,
      "ways": 582,
      "ural": 583,
      "ative": 584,
      "adap": 585,
      "view": 586,
      "emp": 587,
      "monism": 588,
      "inci": 589,
      "reality": 590,
      "au": 591,
      "about": 592,
      "conne": 593,
      "distin": 594,
      "oc": 595,
      "ures": 596,
      "gin": 597,
      "understanding": 598,
      "different": 599,
      "reason": 600,
      "knowled": 601,
      "fore": 602,
      "patterns": 603,
      "hel": 604,
      "ight": 605,
      "effe": 606,
      "ste": 607,
      "ctions": 608,
      "must": 609,
      "refle": 610,
      "pri": 611,
      "med": 612,
      "requ": 613,
      "structure": 614,
      "mental": 615,
      "sim": 616,
      "ak": 617,
      "mple": 618,
      "ron": 619,
      "fer": 620,
      "dic": 621,
      "ternal": 622,
      "ze": 623,
      "each": 624,
      "identi": 625,
      "ef": 626,
      "ents": 627,
      "ag": 628,
      "gener": 629,
      "princi": 630,
      "cts": 631,
      "sions": 632,
      "ose": 633,
      "relational": 634,
      "cal": 635,
      "dy": 636,
      "emo": 637,
      "expl": 638,
      "his": 639,
      "cei": 640,
      "Why": 641,
      "existence": 642,
      "mat": 643,
      "life": 644,
      "ho": 645,
      "ise": 646,
      "knowledge": 647,
      "expres": 648,
      "awareness": 649,
      "refin": 650,
      "ds": 651,
      "men": 652,
      "tra": 653,
      "cus": 654,
      "while": 655,
      "sing": 656,
      "vel": 657,
      "also": 658,
      "intern": 659,
      "could": 660,
      "meaning": 661,
      "rect": 662,
      "mit": 663,
      "emer": 664,
      "If": 665,
      "trans": 666,
      "gan": 667,
      "individuals": 668,
      "coheren": 669,
      "ential": 670,
      "main": 671,
      "fir": 672,
      "systems": 673,
      "dep": 674,
      "sur": 675,
      "cl": 676,
      "lead": 677,
      "back": 678,
      "see": 679,
      "tain": 680,
      "vers": 681,
      "very": 682,
      "row": 683,
      "ules": 684,
      "because": 685,
      "ba": 686,
      "less": 687,
      "organ": 688,
      "reinforcement": 689,
      "shi": 690,
      "But": 691,
      "tiv": 692,
      "then": 693,
      "For": 694,
      "even": 695,
      "influ": 696,
      "Mon": 697,
      "He": 698,
      "come": 699,
      "br": 700,
      "complex": 701,
      "spa": 702,
      "nam": 703,
      "bi": 704,
      "external": 705,
      "logical": 706,
      "eng": 707,
      "ult": 708,
      "necess": 709,
      "both": 710,
      "lic": 711,
      "cing": 712,
      "recogni": 713,
      "frame": 714,
      "velo": 715,
      "sist": 716,
      "ilo": 717,
      "intel": 718,
      "rule": 719,
      "ward": 720,
      "comes": 721,
      "long": 722,
      "gra": 723,
      "should": 724,
      "contin": 725,
      "tical": 726,
      "ms": 727,
      "ision": 728,
      "Monism": 729,
      "ss": 730,
      "idea": 731,
      "contra": 732,
      "arch": 733,
      "ular": 734,
      "cted": 735,
      "soph": 736,
      "zing": 737,
      "gg": 738,
      "rely": 739,
      "phys": 740,
      "gence": 741,
      "pas": 742,
      "ep": 743,
      "part": 744,
      "del": 745,
      "high": 746,
      "continu": 747,
      "appro": 748,
      "internal": 749,
      "might": 750,
      "By": 751,
      "ner": 752,
      "als": 753,
      "obser": 754,
      "up": 755,
      "mind": 756,
      "condi": 757,
      "was": 758,
      "beli": 759,
      "concept": 760,
      "often": 761,
      "Re": 762,
      "need": 763,
      "vo": 764,
      "based": 765,
      "valu": 766,
      "dynam": 767,
      "rules": 768,
      "philo": 769,
      "making": 770,
      "develo": 771,
      "viron": 772,
      "consciousness": 773,
      "dif": 774,
      "fact": 775,
      "help": 776,
      "thin": 777,
      "ency": 778,
      "experiences": 779,
      "comm": 780,
      "play": 781,
      "clu": 782,
      "real": 783,
      "environ": 784,
      "space": 785,
      "truth": 786,
      "ted": 787,
      "depend": 788,
      "point": 789,
      "coherence": 790,
      "ross": 791,
      "those": 792,
      "thought": 793,
      "ower": 794,
      "wo": 795,
      "sol": 796,
      "relationshi": 797,
      "anal": 798,
      "speci": 799,
      "philosoph": 800,
      "ilar": 801,
      "consi": 802,
      "remain": 803,
      "sible": 804,
      "appe": 805,
      "illu": 806,
      "develop": 807,
      "level": 808,
      "ild": 809,
      "lat": 810,
      "ree": 811,
      "structures": 812,
      "shif": 813,
      "partic": 814,
      "provi": 815,
      "sp": 816,
      "lan": 817,
      "ors": 818,
      "sti": 819,
      "termin": 820,
      "ese": 821,
      "objects": 822,
      "framework": 823,
      "produ": 824,
      "ens": 825,
      "reg": 826,
      "learning": 827,
      "oper": 828,
      "exa": 829,
      "most": 830,
      "ill": 831,
      "great": 832,
      "unity": 833,
      "function": 834,
      "across": 835,
      "sense": 836,
      "posi": 837,
      "shap": 838,
      "exp": 839,
      "stim": 840,
      "model": 841,
      "vari": 842,
      "physical": 843,
      "ques": 844,
      "percei": 845,
      "first": 846,
      "grow": 847,
      "set": 848,
      "ody": 849,
      "state": 850,
      "intelli": 851,
      "These": 852,
      "ics": 853,
      "found": 854,
      "change": 855,
      "selves": 856,
      "guage": 857,
      "zed": 858,
      "body": 859,
      "art": 860,
      "refine": 861,
      "sequ": 862,
      "limit": 863,
      "influence": 864,
      "direct": 865,
      "inv": 866,
      "omen": 867,
      "identity": 868,
      "dec": 869,
      "af": 870,
      "been": 871,
      "sm": 872,
      "role": 873,
      "fici": 874,
      "inte": 875,
      "cognitive": 876,
      "ind": 877,
      "que": 878,
      "two": 879,
      "desi": 880,
      "adapt": 881,
      "determin": 882,
      "similar": 883,
      "always": 884,
      "behaviors": 885,
      "ety": 886,
      "ks": 887,
      "ulti": 888,
      "integr": 889,
      "mis": 890,
      "chall": 891,
      "appear": 892,
      "evol": 893,
      "char": 894,
      "ress": 895,
      "ili": 896,
      "Con": 897,
      "read": 898,
      "pot": 899,
      "caus": 900,
      "conf": 901,
      "perspe": 902,
      "make": 903,
      "contro": 904,
      "medi": 905,
      "certain": 906,
      "emotional": 907,
      "col": 908,
      "const": 909,
      "finite": 910,
      "ideas": 911,
      "argu": 912,
      "ced": 913,
      "When": 914,
      "language": 915,
      "multi": 916,
      "matter": 917,
      "enomen": 918,
      "scal": 919,
      "something": 920,
      "ether": 921,
      "context": 922,
      "example": 923,
      "separ": 924,
      "pur": 925,
      "decision": 926,
      "cording": 927,
      "ata": 928,
      "others": 929,
      "ling": 930,
      "personal": 931,
      "law": 932,
      "relation": 933,
      "represent": 934,
      "approach": 935,
      "another": 936,
      "bility": 937,
      "da": 938,
      "here": 939,
      "phenomen": 940,
      "pose": 941,
      "ele": 942,
      "fy": 943,
      "feren": 944,
      "uring": 945,
      "formation": 946,
      "child": 947,
      "sure": 948,
      "stead": 949,
      "An": 950,
      "mem": 951,
      "interpre": 952,
      "ribut": 953,
      "llow": 954,
      "focus": 955,
      "natural": 956,
      "non": 957,
      "connected": 958,
      "xi": 959,
      "descri": 960,
      "loop": 961,
      "tivity": 962,
      "verse": 963,
      "forms": 964,
      "edback": 965,
      "app": 966,
      "dimen": 967,
      "maint": 968,
      "uch": 969,
      "cap": 970,
      "hand": 971,
      "open": 972,
      "allows": 973,
      "la": 974,
      "proper": 975,
      "intelligence": 976,
      "We": 977,
      "ud": 978,
      "prac": 979,
      "lution": 980,
      "light": 981,
      "gy": 982,
      "consist": 983,
      "say": 984,
      "data": 985,
      "inst": 986,
      "oral": 987,
      "ings": 988,
      "ond": 989,
      "suf": 990,
      "requi": 991,
      "ently": 992,
      "ass": 993,
      "follow": 994,
      "try": 995,
      "maintain": 996,
      "ances": 997,
      "explain": 998,
      "order": 999,
      "bu": 1000,
      "ear": 1001,
      "acter": 1002,
      "necessary": 1003,
      "feedback": 1004,
      "principle": 1005,
      "whether": 1006,
      "challen": 1007,
      "response": 1008,
      "ber": 1009,
      "never": 1010,
      "ima": 1011,
      "differenti": 1012,
      "temp": 1013,
      "ase": 1014,
      "tice": 1015,
      "control": 1016,
      "Kant": 1017,
      "character": 1018,
      "create": 1019,
      "tu": 1020,
      "moment": 1021,
      "user": 1022,
      "ples": 1023,
      "monistic": 1024,
      "asure": 1025,
      "growth": 1026,
      "become": 1027,
      "consider": 1028,
      "infinite": 1029,
      "invol": 1030,
      "interactions": 1031,
      "lay": 1032,
      "gges": 1033,
      "theory": 1034,
      "ously": 1035,
      "yond": 1036,
      "itu": 1037,
      "social": 1038,
      "aris": 1039,
      "things": 1040,
      "cas": 1041,
      "acking": 1042,
      "true": 1043,
      "zes": 1044,
      "sugges": 1045,
      "ute": 1046,
      "occur": 1047,
      "fram": 1048,
      "ication": 1049,
      "him": 1050,
      "fully": 1051,
      "ace": 1052,
      "zation": 1053,
      "suc": 1054,
      "allowing": 1055,
      "na": 1056,
      "beyond": 1057,
      "still": 1058,
      "pect": 1059,
      "illusion": 1060,
      "happ": 1061,
      "cannot": 1062,
      "tives": 1063,
      "events": 1064,
      "past": 1065,
      "responses": 1066,
      "power": 1067,
      "ately": 1068,
      "tial": 1069,
      "becomes": 1070,
      "means": 1071,
      "contrast": 1072,
      "particular": 1073,
      "scienti": 1074,
      "kes": 1075,
      "recursion": 1076,
      "har": 1077,
      "supp": 1078,
      "subject": 1079,
      "upon": 1080,
      "principles": 1081,
      "Be": 1082,
      "lin": 1083,
      "potential": 1084,
      "commun": 1085,
      "perspective": 1086,
      "colle": 1087,
      "much": 1088,
      "funda": 1089,
      "eld": 1090,
      "equ": 1091,
      "ically": 1092,
      "ded": 1093,
      "strate": 1094,
      "adjust": 1095,
      "repe": 1096,
      "pure": 1097,
      "were": 1098,
      "distinctions": 1099,
      "active": 1100,
      "iter": 1101,
      "proble": 1102,
      "import": 1103,
      "void": 1104,
      "att": 1105,
      "ople": 1106,
      "specific": 1107,
      "consequ": 1108,
      "suring": 1109,
      "relationships": 1110,
      "event": 1111,
      "intro": 1112,
      "ath": 1113,
      "ger": 1114,
      "bound": 1115,
      "shape": 1116,
      "evi": 1117,
      "tre": 1118,
      "good": 1119,
      "logy": 1120,
      "simp": 1121,
      "science": 1122,
      "sets": 1123,
      "dri": 1124,
      "abili": 1125,
      "coun": 1126,
      "low": 1127,
      "move": 1128,
      "ither": 1129,
      "interpret": 1130,
      "ensuring": 1131,
      "condition": 1132,
      "ies": 1133,
      "before": 1134,
      "heal": 1135,
      "loc": 1136,
      "matic": 1137,
      "engage": 1138,
      "signi": 1139,
      "os": 1140,
      "rup": 1141,
      "ok": 1142,
      "hy": 1143,
      "They": 1144,
      "organism": 1145,
      "structured": 1146,
      "values": 1147,
      "fut": 1148,
      "gover": 1149,
      "contribut": 1150,
      "put": 1151,
      "mechan": 1152,
      "tracking": 1153,
      "sch": 1154,
      "show": 1155,
      "begin": 1156,
      "right": 1157,
      "used": 1158,
      "small": 1159,
      "people": 1160,
      "gree": 1161,
      "den": 1162,
      "tri": 1163,
      "complexity": 1164,
      "lish": 1165,
      "cy": 1166,
      "cent": 1167,
      "yet": 1168,
      "well": 1169,
      "reli": 1170,
      "reflect": 1171,
      "alities": 1172,
      "hold": 1173,
      "ological": 1174,
      "think": 1175,
      "situ": 1176,
      "incre": 1177,
      "stract": 1178,
      "according": 1179,
      "immedi": 1180,
      "port": 1181,
      "tle": 1182,
      "nor": 1183,
      "vis": 1184,
      "ories": 1185,
      "speak": 1186,
      "affe": 1187,
      "ric": 1188,
      "belief": 1189,
      "adaptive": 1190,
      "),": 1191,
      "creating": 1192,
      "tention": 1193,
      "ging": 1194,
      "tur": 1195,
      "merely": 1196,
      "uli": 1197,
      "para": 1198,
      "insi": 1199,
      "rese": 1200,
      "meth": 1201,
      "reve": 1202,
      "avoid": 1203,
      "future": 1204,
      "dynamic": 1205,
      "ysis": 1206,
      "nothing": 1207,
      "abstract": 1208,
      "gent": 1209,
      "origin": 1210,
      "lar": 1211,
      "There": 1212,
      "alignment": 1213,
      "themselves": 1214,
      "processes": 1215,
      "signific": 1216,
      "ands": 1217,
      "after": 1218,
      "sign": 1219,
      "olution": 1220,
      "expression": 1221,
      "bit": 1222,
      "inner": 1223,
      "scientific": 1224,
      "eve": 1225,
      "ster": 1226,
      "words": 1227,
      "take": 1228,
      "place": 1229,
      "field": 1230,
      "position": 1231,
      "fold": 1232,
      "effect": 1233,
      "stimul": 1234,
      "toward": 1235,
      "elf": 1236,
      "learn": 1237,
      "referen": 1238,
      "path": 1239,
      "far": 1240,
      "using": 1241,
      "therefore": 1242,
      "As": 1243,
      "obje": 1244,
      "impro": 1245,
      "fac": 1246,
      "environment": 1247,
      "contradic": 1248,
      "Ex": 1249,
      "deep": 1250,
      "force": 1251,
      "sta": 1252,
      "philosophy": 1253,
      "question": 1254,
      "free": 1255,
      "ince": 1256,
      ").": 1257,
      "God": 1258,
      "energy": 1259,
      "univers": 1260,
      "possible": 1261,
      "cli": 1262,
      "reinforcing": 1263,
      "sens": 1264,
      "inclu": 1265,
      "jus": 1266,
      "mar": 1267,
      "gment": 1268,
      "changes": 1269,
      "No": 1270,
      "eas": 1271,
      "purpose": 1272,
      "Sch": 1273,
      "prev": 1274,
      "fundamental": 1275,
      "define": 1276,
      "fail": 1277,
      "redu": 1278,
      "tis": 1279,
      "line": 1280,
      "sto": 1281,
      "distinct": 1282,
      "ready": 1283,
      "choic": 1284,
      "regard": 1285,
      "cognition": 1286,
      "method": 1287,
      "jud": 1288,
      "oul": 1289,
      "irit": 1290,
      "ni": 1291,
      "**": 1292,
      "fort": 1293,
      "perfe": 1294,
      "bro": 1295,
      "many": 1296,
      "remains": 1297,
      "general": 1298,
      "kind": 1299,
      "interconnected": 1300,
      "fix": 1301,
      "ghts": 1302,
      "sycho": 1303,
      "fering": 1304,
      "adv": 1305,
      "tran": 1306,
      "dualistic": 1307,
      "wr": 1308,
      "case": 1309,
      "mir": 1310,
      "find": 1311,
      "hist": 1312,
      "uer": 1313,
      "complete": 1314,
      "multiple": 1315,
      "gen": 1316,
      "essential": 1317,
      "You": 1318,
      "soul": 1319,
      "higher": 1320,
      "love": 1321,
      "emphas": 1322,
      "ane": 1323,
      "again": 1324,
      "dimension": 1325,
      "However": 1326,
      "conditions": 1327,
      "possi": 1328,
      "solute": 1329,
      "lies": 1330,
      "concepts": 1331,
      "diffic": 1332,
      "predic": 1333,
      "analysis": 1334,
      ".,": 1335,
      "vation": 1336,
      "ask": 1337,
      "creation": 1338,
      "eri": 1339,
      "met": 1340,
      "dig": 1341,
      "fractals": 1342,
      "bre": 1343,
      "loops": 1344,
      "introdu": 1345,
      "oura": 1346,
      "openha": 1347,
      "eper": 1348,
      "clear": 1349,
      "cum": 1350,
      "gies": 1351,
      "transi": 1352,
      "Schopenha": 1353,
      "Schopenhauer": 1354,
      "neg": 1355,
      "deeper": 1356,
      "moral": 1357,
      "attention": 1358,
      "car": 1359,
      "rain": 1360,
      "challenges": 1361,
      "get": 1362,
      "simple": 1363,
      "lect": 1364,
      "anti": 1365,
      "To": 1366,
      "seem": 1367,
      "why": 1368,
      "manif": 1369,
      "term": 1370,
      "leading": 1371,
      "alized": 1372,
      "effective": 1373,
      "por": 1374,
      "ice": 1375,
      "thoughts": 1376,
      "inten": 1377,
      "common": 1378,
      "ground": 1379,
      "suggests": 1380,
      "Plat": 1381,
      "ition": 1382,
      "acts": 1383,
      "don": 1384,
      "ablish": 1385,
      "shift": 1386,
      "unique": 1387,
      "communication": 1388,
      "lying": 1389,
      "had": 1390,
      "distinction": 1391,
      "either": 1392,
      "stu": 1393,
      "collective": 1394,
      "evid": 1395,
      "add": 1396,
      "bed": 1397,
      "reng": 1398,
      "care": 1399,
      "govern": 1400,
      "So": 1401,
      "ry": 1402,
      "Each": 1403,
      "side": 1404,
      "differentiation": 1405,
      "assu": 1406,
      "shaping": 1407,
      "establish": 1408,
      "support": 1409,
      "sup": 1410,
      "concer": 1411,
      "disco": 1412,
      "ily": 1413,
      "nar": 1414,
      "streng": 1415,
      "phenomena": 1416,
      "stimulus": 1417,
      "ris": 1418,
      "cip": 1419,
      "memory": 1420,
      "organi": 1421,
      "effects": 1422,
      "important": 1423,
      "reasoning": 1424,
      "prog": 1425,
      "mb": 1426,
      "Thus": 1427,
      "ultim": 1428,
      "independ": 1429,
      "face": 1430,
      "ast": 1431,
      "already": 1432,
      "mirr": 1433,
      "tics": 1434,
      "Self": 1435,
      "balance": 1436,
      "frequ": 1437,
      "seen": 1438,
      "ints": 1439,
      "going": 1440,
      "cend": 1441,
      "states": 1442,
      "Plato": 1443,
      "want": 1444,
      "measure": 1445,
      "evolution": 1446,
      "antum": 1447,
      "stimuli": 1448,
      "ases": 1449,
      "ggest": 1450,
      "Un": 1451,
      "relationship": 1452,
      "times": 1453,
      "development": 1454,
      "valid": 1455,
      "helps": 1456,
      "models": 1457,
      "imagin": 1458,
      "cies": 1459,
      "makes": 1460,
      "prof": 1461,
      "laws": 1462,
      "On": 1463,
      "arises": 1464,
      "cul": 1465,
      "psycho": 1466,
      "teach": 1467,
      "impres": 1468,
      "frames": 1469,
      "ficient": 1470,
      "cir": 1471,
      "intere": 1472,
      "interest": 1473,
      "oring": 1474,
      "dra": 1475,
      "clo": 1476,
      "ith": 1477,
      "absolute": 1478,
      "interaction": 1479,
      "parts": 1480,
      "emphasi": 1481,
      "demon": 1482,
      "choices": 1483,
      "aut": 1484,
      "universal": 1485,
      "jo": 1486,
      "mer": 1487,
      "suggest": 1488,
      "behavioral": 1489,
      "conflic": 1490,
      "eth": 1491,
      "bodi": 1492,
      "greater": 1493,
      "ining": 1494,
      "flexi": 1495,
      "give": 1496,
      "empir": 1497,
      "ants": 1498,
      "ditional": 1499,
      "everything": 1500,
      "problem": 1501,
      "turn": 1502,
      "emergent": 1503,
      "day": 1504,
      "ables": 1505,
      "tech": 1506,
      "shifts": 1507,
      "aim": 1508,
      "opport": 1509,
      "provide": 1510,
      "harmon": 1511,
      "did": 1512,
      "instead": 1513,
      "once": 1514,
      "qui": 1515,
      "cept": 1516,
      "success": 1517,
      "causes": 1518,
      "And": 1519,
      "doesn": 1520,
      "evolving": 1521,
      "fers": 1522,
      "urally": 1523,
      "levels": 1524,
      "adaptation": 1525,
      "tal": 1526,
      "too": 1527,
      "cond": 1528,
      "rig": 1529,
      "broad": 1530,
      "vir": 1531,
      "given": 1532,
      "information": 1533,
      "cu": 1534,
      "rap": 1535,
      "rest": 1536,
      "interven": 1537,
      "cult": 1538,
      "ones": 1539,
      "num": 1540,
      "ingu": 1541,
      "disrup": 1542,
      "single": 1543,
      "fear": 1544,
      "thinking": 1545,
      "explo": 1546,
      "limitations": 1547,
      "materi": 1548,
      "constra": 1549,
      "respond": 1550,
      "dered": 1551,
      "connection": 1552,
      "Do": 1553,
      "While": 1554,
      "refinement": 1555,
      "universe": 1556,
      "biological": 1557,
      "iness": 1558,
      "sures": 1559,
      "encies": 1560,
      "manifest": 1561,
      "call": 1562,
      "ually": 1563,
      "thus": 1564,
      "herent": 1565,
      "ub": 1566,
      "involves": 1567,
      "recognize": 1568,
      "fam": 1569,
      "made": 1570,
      "achi": 1571,
      "deri": 1572,
      "buil": 1573,
      "Yes": 1574,
      "stabili": 1575,
      "gether": 1576,
      "inherent": 1577,
      "reson": 1578,
      "guid": 1579,
      "related": 1580,
      "alone": 1581,
      "forces": 1582,
      "tend": 1583,
      "ulation": 1584,
      "identify": 1585,
      "isol": 1586,
      "ativity": 1587,
      "reflection": 1588,
      "sche": 1589,
      "entirely": 1590,
      "ave": 1591,
      "ture": 1592,
      "analy": 1593,
      "reveal": 1594,
      "design": 1595,
      "Co": 1596,
      "auto": 1597,
      "simply": 1598,
      "fixed": 1599,
      "De": 1600,
      "unfold": 1601,
      "count": 1602,
      "fication": 1603,
      "environmental": 1604,
      "rigid": 1605,
      "dire": 1606,
      "Instead": 1607,
      "virtu": 1608,
      "ged": 1609,
      ".”": 1610,
      "lack": 1611,
      "however": 1612,
      "cyc": 1613,
      "eness": 1614,
      "stability": 1615,
      "associ": 1616,
      "strong": 1617,
      "emerge": 1618,
      "recognizing": 1619,
      "test": 1620,
      "ourselves": 1621,
      "pati": 1622,
      "constant": 1623,
      "arily": 1624,
      "improve": 1625,
      "better": 1626,
      "phenomenon": 1627,
      "abstr": 1628,
      "outcomes": 1629,
      "distingu": 1630,
      "value": 1631,
      "paradig": 1632,
      "constraints": 1633,
      "comb": 1634,
      "prevent": 1635,
      "entities": 1636,
      "known": 1637,
      "health": 1638,
      "anim": 1639,
      "down": 1640,
      "quantum": 1641,
      "That": 1642,
      "fil": 1643,
      "mechanism": 1644,
      "immediate": 1645,
      "directly": 1646,
      "treat": 1647,
      "aph": 1648,
      "coming": 1649,
      "list": 1650,
      "arise": 1651,
      "feeling": 1652,
      "lines": 1653,
      "research": 1654,
      "mi": 1655,
      "emotions": 1656,
      "justice": 1657,
      "pects": 1658,
      "key": 1659,
      "Bo": 1660,
      "pain": 1661,
      "edu": 1662,
      "vig": 1663,
      "resist": 1664,
      "sk": 1665,
      "ied": 1666,
      "thor": 1667,
      "motion": 1668,
      "etal": 1669,
      "evolve": 1670,
      "..": 1671,
      "ming": 1672,
      "stable": 1673,
      "encoura": 1674,
      "serve": 1675,
      "perfect": 1676,
      "stri": 1677,
      "dou": 1678,
      "really": 1679,
      "shall": 1680,
      "choice": 1681,
      "longer": 1682,
      "speaker": 1683,
      "pes": 1684,
      "satis": 1685,
      "shaped": 1686,
      "scale": 1687,
      "construct": 1688,
      "stain": 1689,
      "At": 1690,
      "reflects": 1691,
      "draw": 1692,
      "second": 1693,
      "asing": 1694,
      "difference": 1695,
      "urther": 1696,
      "interact": 1697,
      "during": 1698,
      "prob": 1699,
      "mere": 1700,
      "narra": 1701,
      "ini": 1702,
      "live": 1703,
      "ensures": 1704,
      "tension": 1705,
      "cial": 1706,
      "consequences": 1707,
      "acy": 1708,
      "dem": 1709,
      "Ch": 1710,
      "feels": 1711,
      "provides": 1712,
      "spirit": 1713,
      ".\"": 1714,
      "pun": 1715,
      "existing": 1716,
      "broader": 1717,
      "material": 1718,
      "sustain": 1719,
      "impact": 1720,
      "transcend": 1721,
      "argues": 1722,
      "net": 1723,
      "terms": 1724,
      "contribute": 1725,
      "coll": 1726,
      "points": 1727,
      "perceive": 1728,
      "dur": 1729,
      "ulty": 1730,
      "let": 1731,
      "acing": 1732,
      "ended": 1733,
      "gger": 1734,
      "elect": 1735,
      "ben": 1736,
      "cti": 1737,
      "essence": 1738,
      "together": 1739,
      "resul": 1740,
      "keep": 1741,
      "requires": 1742,
      "cour": 1743,
      "individuality": 1744,
      "priori": 1745,
      "ken": 1746,
      "tool": 1747,
      "rent": 1748,
      "scill": 1749,
      "views": 1750,
      "considered": 1751,
      "lied": 1752,
      "works": 1753,
      "static": 1754,
      "recursively": 1755,
      "cise": 1756,
      "name": 1757,
      "aren": 1758,
      "transition": 1759,
      "interplay": 1760,
      "sufficient": 1761,
      "full": 1762,
      "Ac": 1763,
      "modi": 1764,
      "exists": 1765,
      "iet": 1766,
      "separate": 1767,
      "distinguish": 1768,
      "since": 1769,
      "iting": 1770,
      "societal": 1771,
      "grou": 1772,
      "clar": 1773,
      "dynamics": 1774,
      "St": 1775,
      "believe": 1776,
      "reach": 1777,
      "ensure": 1778,
      "qualities": 1779,
      "subst": 1780,
      "sees": 1781,
      "produce": 1782,
      "driven": 1783,
      "metaph": 1784,
      "Niet": 1785,
      "zsche": 1786,
      "asser": 1787,
      "entity": 1788,
      "continuous": 1789,
      "Nietzsche": 1790,
      "ck": 1791,
      "therap": 1792,
      "stress": 1793,
      "conclu": 1794,
      "flow": 1795,
      "aging": 1796,
      "functions": 1797,
      "itation": 1798,
      "strugg": 1799,
      "naturally": 1800,
      "ters": 1801,
      "vibr": 1802,
      "forming": 1803,
      ",\"": 1804,
      "rary": 1805,
      "sis": 1806,
      "unities": 1807,
      "Can": 1808,
      "pha": 1809,
      "leads": 1810,
      "defined": 1811,
      "describe": 1812,
      "ft": 1813,
      "pi": 1814,
      "With": 1815,
      "ran": 1816,
      "guide": 1817,
      "perceptions": 1818,
      "taint": 1819,
      "bes": 1820,
      "unif": 1821,
      "ey": 1822,
      "enh": 1823,
      "properties": 1824,
      "society": 1825,
      "frameworks": 1826,
      "affect": 1827,
      "punish": 1828,
      "creates": 1829,
      "prim": 1830,
      "larger": 1831,
      "ctives": 1832,
      "sound": 1833,
      "ying": 1834,
      "word": 1835,
      "tainty": 1836,
      "shared": 1837,
      "layers": 1838,
      "recognition": 1839,
      "mathe": 1840,
      "dimensions": 1841,
      "eval": 1842,
      "appears": 1843,
      "ins": 1844,
      "aspects": 1845,
      "ered": 1846,
      "aries": 1847,
      "certainty": 1848,
      "expressions": 1849,
      "require": 1850,
      "Every": 1851,
      "err": 1852,
      "issu": 1853,
      "suffering": 1854,
      "oscill": 1855,
      "quality": 1856,
      "instance": 1857,
      "Ide": 1858,
      "relate": 1859,
      "course": 1860,
      "ume": 1861,
      "optim": 1862,
      "needs": 1863,
      "agree": 1864,
      "pic": 1865,
      "ceed": 1866,
      "cru": 1867,
      "fre": 1868,
      "decisions": 1869,
      "living": 1870,
      "head": 1871,
      "discus": 1872,
      "scales": 1873,
      "sts": 1874,
      "expect": 1875,
      "systemic": 1876,
      "old": 1877,
      "ateg": 1878,
      "coherent": 1879,
      "significance": 1880,
      "text": 1881,
      "convers": 1882,
      "comput": 1883,
      "structural": 1884,
      "underlying": 1885,
      "practical": 1886,
      "contain": 1887,
      "ends": 1888,
      "step": 1889,
      "class": 1890,
      "positive": 1891,
      "three": 1892,
      "ined": 1893,
      "author": 1894,
      "empirical": 1895,
      "ot": 1896,
      "gel": 1897,
      "manner": 1898,
      "navig": 1899,
      "acity": 1900,
      "movement": 1901,
      "account": 1902,
      "correct": 1903,
      "resi": 1904,
      "compare": 1905,
      "engagement": 1906,
      "alization": 1907,
      "imagination": 1908,
      "posed": 1909,
      "functional": 1910,
      "vision": 1911,
      "result": 1912,
      "moments": 1913,
      "impos": 1914,
      "negative": 1915,
      "gain": 1916,
      "dest": 1917,
      "rich": 1918,
      "indic": 1919,
      "oration": 1920,
      "edom": 1921,
      "necessity": 1922,
      "ethical": 1923,
      "history": 1924,
      "ublic": 1925,
      "persist": 1926,
      "gives": 1927,
      "consistent": 1928,
      "categ": 1929,
      "look": 1930,
      "further": 1931,
      "maintaining": 1932,
      "strategies": 1933,
      "derived": 1934,
      "rates": 1935,
      "exam": 1936,
      "circum": 1937,
      "appl": 1938,
      "framing": 1939,
      "Hume": 1940,
      "someone": 1941,
      "mor": 1942,
      "uistic": 1943,
      "content": 1944,
      "thentic": 1945,
      "linguistic": 1946,
      "insights": 1947,
      "concern": 1948,
      "resol": 1949,
      "current": 1950,
      "processing": 1951,
      "challenge": 1952,
      "visi": 1953,
      "demonstr": 1954,
      "accur": 1955,
      "fied": 1956,
      "pleasure": 1957,
      "Hegel": 1958,
      "sensory": 1959,
      "ages": 1960,
      "educ": 1961,
      "brain": 1962,
      "sc": 1963,
      "unconscious": 1964,
      "intellect": 1965,
      "ultimate": 1966,
      "her": 1967,
      "exts": 1968,
      "referential": 1969,
      "explore": 1970,
      "aligns": 1971,
      "?”": 1972,
      "enough": 1973,
      "arti": 1974,
      "weak": 1975,
      "bas": 1976,
      "fies": 1977,
      "emerges": 1978,
      "skill": 1979,
      "ail": 1980,
      "goals": 1981,
      "differ": 1982,
      "property": 1983,
      "freedom": 1984,
      "feelings": 1985,
      "observe": 1986,
      "encing": 1987,
      "passions": 1988,
      "break": 1989,
      "conflict": 1990,
      "Now": 1991,
      "ons": 1992,
      "star": 1993,
      "occurs": 1994,
      ",”": 1995,
      "av": 1996,
      "ather": 1997,
      "track": 1998,
      "goal": 1999,
      "independent": 2000,
      "Is": 2001,
      "ord": 2002,
      "conting": 2003,
      "religi": 2004,
      "From": 2005,
      "Mo": 2006,
      "responding": 2007,
      "Through": 2008,
      "study": 2009,
      "Se": 2010,
      "firm": 2011,
      "activity": 2012,
      "interpretation": 2013,
      "Pro": 2014,
      "vious": 2015,
      "users": 2016,
      "bili": 2017,
      "mag": 2018,
      "contexts": 2019,
      "happens": 2020,
      "significant": 2021,
      "ae": 2022,
      "ang": 2023,
      "En": 2024,
      "Dase": 2025,
      "tual": 2026,
      "ature": 2027,
      "situations": 2028,
      "Dasein": 2029,
      "phy": 2030,
      "fal": 2031,
      "remo": 2032,
      "accept": 2033,
      "subje": 2034,
      "truths": 2035,
      "away": 2036,
      "fragment": 2037,
      "explan": 2038,
      "situation": 2039,
      "archety": 2040,
      "ficial": 2041,
      "bodies": 2042,
      "deed": 2043,
      "divi": 2044,
      "simul": 2045,
      "emergence": 2046,
      "ech": 2047,
      "oppos": 2048,
      "passion": 2049,
      "against": 2050,
      "circumst": 2051,
      "mal": 2052,
      "objective": 2053,
      "progress": 2054,
      "bilities": 2055,
      "bri": 2056,
      "refining": 2057,
      "cultural": 2058,
      "duration": 2059,
      "resili": 2060,
      "due": 2061,
      "reinforced": 2062,
      "fluid": 2063,
      "last": 2064,
      "fall": 2065,
      "atory": 2066,
      "temporal": 2067,
      "opportunities": 2068,
      "results": 2069,
      "FT": 2070,
      "becoming": 2071,
      "structuring": 2072,
      "authentic": 2073,
      "traditional": 2074,
      "Recur": 2075,
      "til": 2076,
      "meaningful": 2077,
      "bus": 2078,
      "rele": 2079,
      "foundation": 2080,
      "methods": 2081,
      "RFT": 2082,
      "respect": 2083,
      "gram": 2084,
      "original": 2085,
      "frequency": 2086,
      "aking": 2087,
      "reh": 2088,
      "ensity": 2089,
      "senti": 2090,
      "expand": 2091,
      "harmony": 2092,
      "definite": 2093,
      "training": 2094,
      "evalu": 2095,
      "parti": 2096,
      "dynamically": 2097,
      "profound": 2098,
      "core": 2099,
      "doub": 2100,
      "ious": 2101,
      "experiment": 2102,
      "subtle": 2103,
      "difficult": 2104,
      "joy": 2105,
      "cycles": 2106,
      "Per": 2107,
      "mus": 2108,
      "compreh": 2109,
      "repeated": 2110,
      "mark": 2111,
      "paradigm": 2112,
      "belong": 2113,
      "transformation": 2114,
      "ination": 2115,
      "sour": 2116,
      "input": 2117,
      "opin": 2118,
      "humans": 2119,
      "unified": 2120,
      "lower": 2121,
      "exer": 2122,
      "symp": 2123,
      "strength": 2124,
      "opinion": 2125,
      "continuously": 2126,
      "casion": 2127,
      "ames": 2128,
      "elements": 2129,
      "ship": 2130,
      "boundaries": 2131,
      "ited": 2132,
      "impossible": 2133,
      "Pr": 2134,
      "said": 2135,
      "later": 2136,
      "separation": 2137,
      "applied": 2138,
      "foster": 2139,
      "himself": 2140,
      "insight": 2141,
      "choose": 2142,
      "questions": 2143,
      "altern": 2144,
      "solving": 2145,
      "children": 2146,
      "occasion": 2147,
      "ign": 2148,
      "recei": 2149,
      "various": 2150,
      "perspectives": 2151,
      "increasing": 2152,
      "group": 2153,
      "connect": 2154,
      "bl": 2155,
      "hard": 2156,
      "orical": 2157,
      "motiv": 2158,
      "eves": 2159,
      "perceived": 2160,
      "Ad": 2161,
      "stay": 2162,
      "stric": 2163,
      "number": 2164,
      "Does": 2165,
      "knowing": 2166,
      "death": 2167,
      "actual": 2168,
      "Soc": 2169,
      "mits": 2170,
      "mut": 2171,
      "subjective": 2172,
      "ably": 2173,
      "attemp": 2174,
      "creative": 2175,
      "alle": 2176,
      "patient": 2177,
      "Just": 2178,
      "lit": 2179,
      "uro": 2180,
      "Heide": 2181,
      "handle": 2182,
      "virtue": 2183,
      "Socrates": 2184,
      "causality": 2185,
      "moder": 2186,
      "plan": 2187,
      "assess": 2188,
      "failure": 2189,
      "Heidegger": 2190,
      "ove": 2191,
      "pul": 2192,
      "thesis": 2193,
      "ick": 2194,
      "setting": 2195,
      "capable": 2196,
      "stood": 2197,
      "direction": 2198,
      "Sp": 2199,
      "logic": 2200,
      "aligning": 2201,
      "definition": 2202,
      "observed": 2203,
      "integration": 2204,
      "holds": 2205,
      "mist": 2206,
      "alter": 2207,
      "ater": 2208,
      "aces": 2209,
      "abs": 2210,
      "among": 2211,
      "resonance": 2212,
      "optimi": 2213,
      "tition": 2214,
      "foundational": 2215,
      "athy": 2216,
      "wrong": 2217,
      "possibilities": 2218,
      "asks": 2219,
      "intu": 2220,
      "ultane": 2221,
      "James": 2222,
      "ral": 2223,
      "cially": 2224,
      "hood": 2225,
      "argue": 2226,
      "isolated": 2227,
      "spiritual": 2228,
      "tionally": 2229,
      "notion": 2230,
      "syn": 2231,
      "formed": 2232,
      "predict": 2233,
      "ring": 2234,
      "commit": 2235,
      "philosophical": 2236,
      "conditioned": 2237,
      "anxi": 2238,
      "ening": 2239,
      "promp": 2240,
      "yourself": 2241,
      "myself": 2242,
      "depth": 2243,
      "bracing": 2244,
      "particles": 2245,
      "lock": 2246,
      "ream": 2247,
      "embed": 2248,
      "simultane": 2249,
      "versity": 2250,
      "onom": 2251,
      "answ": 2252,
      "aligned": 2253,
      "possibility": 2254,
      "flexibility": 2255,
      "jour": 2256,
      "ongoing": 2257,
      "include": 2258,
      "instru": 2259,
      "pra": 2260,
      "erarch": 2261,
      "sibility": 2262,
      "dete": 2263,
      "alize": 2264,
      "follows": 2265,
      "rise": 2266,
      "modif": 2267,
      "practice": 2268,
      "cell": 2269,
      "vice": 2270,
      "perfor": 2271,
      "une": 2272,
      "gradual": 2273,
      "facts": 2274,
      "wise": 2275,
      "degree": 2276,
      "ception": 2277,
      "veness": 2278,
      "practic": 2279,
      "address": 2280,
      "ec": 2281,
      "contrary": 2282,
      "contradictions": 2283,
      "achieve": 2284,
      "realities": 2285,
      "book": 2286,
      "providing": 2287,
      "nex": 2288,
      "public": 2289,
      "preser": 2290,
      "Without": 2291,
      "run": 2292,
      "understood": 2293,
      "factors": 2294,
      "evident": 2295,
      "listener": 2296,
      "resilience": 2297,
      "hes": 2298,
      "wa": 2299,
      "iring": 2300,
      "auti": 2301,
      "next": 2302,
      "liber": 2303,
      "capacity": 2304,
      "espe": 2305,
      "doing": 2306,
      "manage": 2307,
      "criti": 2308,
      "influences": 2309,
      "limited": 2310,
      "desire": 2311,
      "pursu": 2312,
      "following": 2313,
      "advance": 2314,
      "impression": 2315,
      "circumstances": 2316,
      "task": 2317,
      "representation": 2318,
      "usion": 2319,
      "ests": 2320,
      "soli": 2321,
      "performan": 2322,
      "isn": 2323,
      "speech": 2324,
      "express": 2325,
      "mirrors": 2326,
      "fine": 2327,
      "truly": 2328,
      "dimensional": 2329,
      "mbol": 2330,
      "especially": 2331,
      "pride": 2332,
      "called": 2333,
      "engaging": 2334,
      "emphasizes": 2335,
      "resistance": 2336,
      "little": 2337,
      "ental": 2338,
      "fig": 2339,
      "confid": 2340,
      "evidence": 2341,
      "hyth": 2342,
      "seems": 2343,
      "collap": 2344,
      "substance": 2345,
      "ancing": 2346,
      "outside": 2347,
      "Al": 2348,
      "mic": 2349,
      "custo": 2350,
      "observ": 2351,
      "modern": 2352,
      "ilit": 2353,
      "expan": 2354,
      "According": 2355,
      "super": 2356,
      "comfort": 2357,
      "short": 2358,
      "Rather": 2359,
      "helping": 2360,
      "represents": 2361,
      "intervention": 2362,
      "doct": 2363,
      "effort": 2364,
      "contradiction": 2365,
      "crucial": 2366,
      "particip": 2367,
      "concei": 2368,
      "impo": 2369,
      "whose": 2370,
      "home": 2371,
      "immediately": 2372,
      "Sim": 2373,
      "symbol": 2374,
      "determined": 2375,
      "ler": 2376,
      "ology": 2377,
      "around": 2378,
      "limits": 2379,
      "dom": 2380,
      "uses": 2381,
      "presence": 2382,
      "continuity": 2383,
      "believes": 2384,
      "visible": 2385,
      "Sk": 2386,
      "und": 2387,
      "mod": 2388,
      "healing": 2389,
      "begins": 2390,
      "Some": 2391,
      "forward": 2392,
      "having": 2393,
      "creativity": 2394,
      "generate": 2395,
      "shapes": 2396,
      "established": 2397,
      "mples": 2398,
      "sum": 2399,
      "hierarch": 2400,
      "latter": 2401,
      "punishment": 2402,
      "ordin": 2403,
      "Ver": 2404,
      "enables": 2405,
      "off": 2406,
      "sole": 2407,
      "quanti": 2408,
      "crete": 2409,
      "ideal": 2410,
      "clas": 2411,
      "impressions": 2412,
      "mechanisms": 2413,
      "performance": 2414,
      "refers": 2415,
      "exhi": 2416,
      "moving": 2417,
      "string": 2418,
      "fit": 2419,
      "likely": 2420,
      "determine": 2421,
      "war": 2422,
      "ists": 2423,
      "appre": 2424,
      "adaptability": 2425,
      "tempor": 2426,
      "hypo": 2427,
      "psychology": 2428,
      "tools": 2429,
      "return": 2430,
      "perceptual": 2431,
      "community": 2432,
      "worth": 2433,
      "whel": 2434,
      "reinforces": 2435,
      "trust": 2436,
      "conceptual": 2437,
      "project": 2438,
      "progres": 2439,
      "best": 2440,
      "start": 2441,
      "gue": 2442,
      "beliefs": 2443,
      "deta": 2444,
      "proof": 2445,
      "serves": 2446,
      "beings": 2447,
      "necessarily": 2448,
      "unfolding": 2449,
      "precise": 2450,
      "overwhel": 2451,
      "exploration": 2452,
      "grav": 2453,
      "observation": 2454,
      "reference": 2455,
      "vate": 2456,
      "changing": 2457,
      "Tr": 2458,
      "bad": 2459,
      "philosophers": 2460,
      "benef": 2461,
      "Recursive": 2462,
      "ome": 2463,
      "condu": 2464,
      "abling": 2465,
      "apply": 2466,
      "judgment": 2467,
      "nexion": 2468,
      "extension": 2469,
      "outcome": 2470,
      "gible": 2471,
      "Skinner": 2472,
      "hum": 2473,
      "indu": 2474,
      "exact": 2475,
      "standing": 2476,
      "discover": 2477,
      "famili": 2478,
      "Des": 2479,
      "enabling": 2480,
      "meas": 2481,
      "lling": 2482,
      "entially": 2483,
      "teaching": 2484,
      "xim": 2485,
      "anch": 2486,
      "ites": 2487,
      "connexion": 2488,
      "namely": 2489,
      "trying": 2490,
      "rhyth": 2491,
      "least": 2492,
      "aring": 2493,
      "environments": 2494,
      "Being": 2495,
      "implic": 2496,
      "primary": 2497,
      "Over": 2498,
      "sters": 2499,
      "iterative": 2500,
      "psychological": 2501,
      "Spirit": 2502,
      "eternal": 2503,
      "prior": 2504,
      "claim": 2505,
      "enhance": 2506,
      "igh": 2507,
      "vic": 2508,
      "dience": 2509,
      "autocli": 2510,
      "--": 2511,
      "sent": 2512,
      "smo": 2513,
      "layered": 2514,
      "reflecting": 2515,
      "linear": 2516,
      "doubt": 2517,
      "dial": 2518,
      "period": 2519,
      "modeling": 2520,
      "purely": 2521,
      "problems": 2522,
      "importance": 2523,
      "poses": 2524,
      "entire": 2525,
      "integrate": 2526,
      "ference": 2527,
      "advant": 2528,
      "treatment": 2529,
      "relev": 2530,
      "Will": 2531,
      "div": 2532,
      "close": 2533,
      "Ty": 2534,
      "rational": 2535,
      "dox": 2536,
      "ney": 2537,
      "embracing": 2538,
      "seeing": 2539,
      "bring": 2540,
      "ased": 2541,
      "ines": 2542,
      "intra": 2543,
      "regul": 2544,
      "conditioning": 2545,
      "Exa": 2546,
      "techni": 2547,
      "building": 2548,
      "therapy": 2549,
      "ls": 2550,
      "vol": 2551,
      "thetic": 2552,
      "lives": 2553,
      "quite": 2554,
      "Therefore": 2555,
      "flexible": 2556,
      "Even": 2557,
      "arri": 2558,
      "few": 2559,
      "matical": 2560,
      "timelines": 2561,
      "Eric": 2562,
      "Li": 2563,
      "Rel": 2564,
      "reject": 2565,
      "promo": 2566,
      "focusing": 2567,
      "cases": 2568,
      "assump": 2569,
      "strengthen": 2570,
      "hol": 2571,
      "auty": 2572,
      "initi": 2573,
      "education": 2574,
      "ital": 2575,
      "cture": 2576,
      "easy": 2577,
      "interventions": 2578,
      "abstraction": 2579,
      "acknowled": 2580,
      "ticism": 2581,
      "safe": 2582,
      "analo": 2583,
      "succes": 2584,
      "cle": 2585,
      "fri": 2586,
      "beauty": 2587,
      "actually": 2588,
      "else": 2589,
      "explanation": 2590,
      "Type": 2591,
      "recon": 2592,
      "reward": 2593,
      "quam": 2594,
      "appearance": 2595,
      "aling": 2596,
      "transform": 2597,
      "Behavior": 2598,
      "centur": 2599,
      "easily": 2600,
      "anxiety": 2601,
      "All": 2602,
      "Di": 2603,
      "dden": 2604,
      "rad": 2605,
      "loo": 2606,
      "happen": 2607,
      "year": 2608,
      "enter": 2609,
      "sus": 2610,
      "willing": 2611,
      "archite": 2612,
      "simultaneously": 2613,
      "intraverbal": 2614,
      "19": 2615,
      "ought": 2616,
      "adjustments": 2617,
      "ultimately": 2618,
      "crimin": 2619,
      "labe": 2620,
      "build": 2621,
      "suppor": 2622,
      "reduce": 2623,
      "guiding": 2624,
      "mands": 2625,
      "atom": 2626,
      "offer": 2627,
      "lutions": 2628,
      "distance": 2629,
      "Both": 2630,
      "narratives": 2631,
      "struggle": 2632,
      "tasks": 2633,
      "relative": 2634,
      "traject": 2635,
      "desires": 2636,
      "early": 2637,
      "reveals": 2638,
      "narrative": 2639,
      "false": 2640,
      "kson": 2641,
      "ore": 2642,
      "anger": 2643,
      "exc": 2644,
      "senses": 2645,
      "intellectual": 2646,
      "Erickson": 2647,
      "mes": 2648,
      "rec": 2649,
      "def": 2650,
      "actively": 2651,
      "learned": 2652,
      "autonom": 2653,
      "navigate": 2654,
      "skills": 2655,
      "sym": 2656,
      "compon": 2657,
      "spatial": 2658,
      "operant": 2659,
      "effectively": 2660,
      "takes": 2661,
      "difficulty": 2662,
      "source": 2663,
      "AB": 2664,
      "ade": 2665,
      "usu": 2666,
      "acting": 2667,
      "says": 2668,
      "arent": 2669,
      "doctr": 2670,
      "fill": 2671,
      "water": 2672,
      "along": 2673,
      "ending": 2674,
      "defining": 2675,
      "variables": 2676,
      "argument": 2677,
      "error": 2678,
      "indeed": 2679,
      "proceed": 2680,
      "series": 2681,
      "operates": 2682,
      "perceiver": 2683,
      "large": 2684,
      "concerning": 2685,
      "echo": 2686,
      "program": 2687,
      "descrip": 2688,
      "describes": 2689,
      "metaphys": 2690,
      "conven": 2691,
      "fields": 2692,
      "Idea": 2693,
      "gation": 2694,
      "discovery": 2695,
      "journey": 2696,
      "minds": 2697,
      "posses": 2698,
      "critical": 2699,
      "consistency": 2700,
      "Me": 2701,
      "Ph": 2702,
      "wish": 2703,
      "offering": 2704,
      "appropri": 2705,
      "alternative": 2706,
      "xt": 2707,
      "inno": 2708,
      "similarity": 2709,
      "tone": 2710,
      "giving": 2711,
      "interconnectedness": 2712,
      "eli": 2713,
      "gments": 2714,
      "unt": 2715,
      "species": 2716,
      "communic": 2717,
      "identifying": 2718,
      "ire": 2719,
      "pus": 2720,
      "intensity": 2721,
      "physics": 2722,
      "mirror": 2723,
      "cr": 2724,
      "ig": 2725,
      "won": 2726,
      "theories": 2727,
      "above": 2728,
      "comparis": 2729,
      "seek": 2730,
      "dependent": 2731,
      "produces": 2732,
      "consequence": 2733,
      "resemb": 2734,
      "facilit": 2735,
      "answer": 2736,
      "expansion": 2737,
      "Sy": 2738,
      "ton": 2739,
      "attribut": 2740,
      "techno": 2741,
      "striving": 2742,
      "satisf": 2743,
      "fru": 2744,
      "story": 2745,
      "weight": 2746,
      "equi": 2747,
      "shows": 2748,
      "expectations": 2749,
      "bers": 2750,
      "repl": 2751,
      "challeng": 2752,
      "abilities": 2753,
      "faculty": 2754,
      "deeply": 2755,
      "Could": 2756,
      "meet": 2757,
      "conception": 2758,
      "passive": 2759,
      "suggestions": 2760,
      "ports": 2761,
      "inherently": 2762,
      "mentally": 2763,
      "pass": 2764,
      "TH": 2765,
      "bra": 2766,
      "former": 2767,
      "previous": 2768,
      "contextual": 2769,
      "avoidance": 2770,
      "she": 2771,
      "esse": 2772,
      "sometimes": 2773,
      "artes": 2774,
      "judge": 2775,
      "cues": 2776,
      "family": 2777,
      "prioriti": 2778,
      "clarity": 2779,
      "Here": 2780,
      "wixt": 2781,
      "type": 2782,
      "anything": 2783,
      "See": 2784,
      "betwixt": 2785,
      "poss": 2786,
      "gradually": 2787,
      "satisfaction": 2788,
      "tor": 2789,
      "thir": 2790,
      "ension": 2791,
      "left": 2792,
      "asp": 2793,
      "Inter": 2794,
      "explained": 2795,
      "powerful": 2796,
      "opportunity": 2797,
      "animal": 2798,
      "conversation": 2799,
      "morality": 2800,
      "cat": 2801,
      "ancy": 2802,
      "constru": 2803,
      "choo": 2804,
      "overall": 2805,
      "layer": 2806,
      "networks": 2807,
      "familiar": 2808,
      "nu": 2809,
      "reports": 2810,
      "until": 2811,
      "connections": 2812,
      "Because": 2813,
      "evil": 2814,
      "pal": 2815,
      "compas": 2816,
      "involve": 2817,
      "lt": 2818,
      "tar": 2819,
      "sele": 2820,
      "habit": 2821,
      "solution": 2822,
      "operation": 2823,
      "deterministic": 2824,
      "Tru": 2825,
      "contemp": 2826,
      "corre": 2827,
      "expressed": 2828,
      "organic": 2829,
      "particularly": 2830,
      "including": 2831,
      "remem": 2832,
      "music": 2833,
      "air": 2834,
      "neural": 2835,
      "types": 2836,
      "examples": 2837,
      "categories": 2838,
      "bly": 2839,
      "haps": 2840,
      "getic": 2841,
      "paradox": 2842,
      "Under": 2843,
      "uncertainty": 2844,
      "cape": 2845,
      "refines": 2846,
      "rate": 2847,
      "arcas": 2848,
      "individu": 2849,
      "discrimin": 2850,
      "issues": 2851,
      "heart": 2852,
      "duality": 2853,
      "taking": 2854,
      "equal": 2855,
      "practices": 2856,
      "jun": 2857,
      "ouch": 2858,
      "stage": 2859,
      "atever": 2860,
      "useful": 2861,
      "extre": 2862,
      "depends": 2863,
      "operate": 2864,
      "attract": 2865,
      "divine": 2866,
      "aver": 2867,
      "bur": 2868,
      "hind": 2869,
      "arbit": 2870,
      "differences": 2871,
      "influenced": 2872,
      "My": 2873,
      "hon": 2874,
      "ised": 2875,
      "sight": 2876,
      "neut": 2877,
      "intric": 2878,
      "paralle": 2879,
      "obli": 2880,
      "element": 2881,
      "historical": 2882,
      "exhibit": 2883,
      "Ne": 2884,
      "tacts": 2885,
      "ura": 2886,
      "diversity": 2887,
      "emotion": 2888,
      "city": 2889,
      "sever": 2890,
      "vities": 2891,
      "poe": 2892,
      "energetic": 2893,
      "matics": 2894,
      "ive": 2895,
      "tation": 2896,
      "oscillation": 2897,
      "inves": 2898,
      "popha": 2899,
      "White": 2900,
      "Conscious": 2901,
      "required": 2902,
      "governing": 2903,
      "addres": 2904,
      "pophatic": 2905,
      "cartes": 2906,
      "ras": 2907,
      "acti": 2908,
      "private": 2909,
      "showing": 2910,
      "reducing": 2911,
      "issue": 2912,
      "basic": 2913,
      "Descartes": 2914,
      "Whitehead": 2915,
      "?\"": 2916,
      "bits": 2917,
      "dance": 2918,
      "incoherence": 2919,
      "alibr": 2920,
      "highlight": 2921,
      "realm": 2922,
      "solely": 2923,
      "acqu": 2924,
      "lights": 2925,
      "novel": 2926,
      "loy": 2927,
      "solve": 2928,
      "shifting": 2929,
      "integrated": 2930,
      "fostering": 2931,
      "stud": 2932,
      "accep": 2933,
      "deci": 2934,
      "perman": 2935,
      "final": 2936,
      "instant": 2937,
      "stra": 2938,
      "minim": 2939,
      "effici": 2940,
      "preventing": 2941,
      "brid": 2942,
      "Let": 2943,
      "four": 2944,
      "resha": 2945,
      "neither": 2946,
      "pping": 2947,
      "operants": 2948,
      "characteristic": 2949,
      "Verbal": 2950,
      "comparison": 2951,
      "One": 2952,
      "Res": 2953,
      "Since": 2954,
      "ax": 2955,
      "va": 2956,
      "internally": 2957,
      "retain": 2958,
      "abor": 2959,
      "Who": 2960,
      "working": 2961,
      "surface": 2962,
      "Example": 2963,
      "Yet": 2964,
      "tible": 2965,
      "exclu": 2966,
      "intentional": 2967,
      "encourages": 2968,
      "conduct": 2969,
      "Sarcas": 2970,
      "cra": 2971,
      "expe": 2972,
      "network": 2973,
      "ctiveness": 2974,
      "acceptance": 2975,
      "mutual": 2976,
      "mistak": 2977,
      "solid": 2978,
      "Similar": 2979,
      "behind": 2980,
      "note": 2981,
      "distor": 2982,
      "standard": 2983,
      "controlled": 2984,
      "link": 2985,
      "equally": 2986,
      "contributes": 2987,
      "religious": 2988,
      "detect": 2989,
      "autoclitics": 2990,
      "infer": 2991,
      "ator": 2992,
      "conve": 2993,
      "whereas": 2994,
      "regulation": 2995,
      "desired": 2996,
      "harm": 2997,
      "gene": 2998,
      "associated": 2999,
      "theore": 3000,
      "lea": 3001,
      "viol": 3002,
      "domain": 3003,
      "explic": 3004,
      "singular": 3005,
      "introduces": 3006,
      "constantly": 3007,
      "done": 3008,
      "audience": 3009,
      "agency": 3010,
      "limitation": 3011,
      "saying": 3012,
      "explains": 3013,
      "sensation": 3014,
      "picture": 3015,
      "physi": 3016,
      "confidence": 3017,
      "elimin": 3018,
      "aspect": 3019,
      "consti": 3020,
      "Boh": 3021,
      "artificial": 3022,
      "relevant": 3023,
      "techniques": 3024,
      "challenging": 3025,
      "lie": 3026,
      "pressure": 3027,
      "experiments": 3028,
      "medic": 3029,
      "particle": 3030,
      "integrating": 3031,
      "representations": 3032,
      "automatic": 3033,
      "applic": 3034,
      "intricate": 3035,
      "2G": 3036,
      "Cre": 3037,
      "cry": 3038,
      "viously": 3039,
      "dog": 3040,
      "taken": 3041,
      "passa": 3042,
      "highest": 3043,
      "beginning": 3044,
      "stop": 3045,
      "doctrine": 3046,
      "10": 3047,
      "Ab": 3048,
      "access": 3049,
      "compo": 3050,
      "Fractals": 3051,
      "continue": 3052,
      "carry": 3053,
      "insic": 3054,
      "application": 3055,
      "ABA": 3056,
      "Sarcastic": 3057,
      "amp": 3058,
      "lens": 3059,
      "intr": 3060,
      "fications": 3061,
      "created": 3062,
      "compared": 3063,
      "Are": 3064,
      "mand": 3065,
      "almost": 3066,
      "roles": 3067,
      "lived": 3068,
      "notice": 3069,
      "fosters": 3070,
      "introspe": 3071,
      "suggesting": 3072,
      "perfectly": 3073,
      "opposite": 3074,
      "New": 3075,
      "lation": 3076,
      "round": 3077,
      "chain": 3078,
      "mechanics": 3079,
      "expected": 3080,
      "conom": 3081,
      "sides": 3082,
      "dimin": 3083,
      "web": 3084,
      "peace": 3085,
      "corpor": 3086,
      "effectiveness": 3087,
      "influencing": 3088,
      "observer": 3089,
      "remark": 3090,
      "ading": 3091,
      "everyone": 3092,
      "directed": 3093,
      "described": 3094,
      "repeat": 3095,
      "vibrational": 3096,
      "range": 3097,
      "century": 3098,
      "Cri": 3099,
      "branch": 3100,
      "approaches": 3101,
      "earth": 3102,
      "mathematical": 3103,
      "Consciousness": 3104,
      "acqui": 3105,
      "domin": 3106,
      "ante": 3107,
      "intention": 3108,
      "measurement": 3109,
      "micro": 3110,
      "advantage": 3111,
      "Su": 3112,
      "cover": 3113,
      "ulties": 3114,
      "pec": 3115,
      "mani": 3116,
      "typ": 3117,
      "introduce": 3118,
      "eye": 3119,
      "computation": 3120,
      "years": 3121,
      "symme": 3122,
      "ado": 3123,
      "cused": 3124,
      "neuro": 3125,
      "quick": 3126,
      "tell": 3127,
      "experienced": 3128,
      "needed": 3129,
      "special": 3130,
      "hat": 3131,
      "ju": 3132,
      "tact": 3133,
      "chem": 3134,
      "fundamentally": 3135,
      "adjusting": 3136,
      "activities": 3137,
      "Bohm": 3138,
      "tem": 3139,
      "refer": 3140,
      "tot": 3141,
      "diver": 3142,
      "render": 3143,
      "share": 3144,
      "consciously": 3145,
      "positions": 3146,
      "detail": 3147,
      "sco": 3148,
      "tap": 3149,
      "vary": 3150,
      "whatever": 3151,
      "cha": 3152,
      "felt": 3153,
      "ambi": 3154,
      "differently": 3155,
      "survi": 3156,
      "Recogni": 3157,
      "illness": 3158,
      "localized": 3159,
      "imposed": 3160,
      "vast": 3161,
      "alth": 3162,
      "concrete": 3163,
      "finding": 3164,
      "valuable": 3165,
      "repetition": 3166,
      "genu": 3167,
      "filter": 3168,
      "absence": 3169,
      "gravity": 3170,
      "ping": 3171,
      "pno": 3172,
      "deliber": 3173,
      "chak": 3174,
      "resour": 3175,
      "superi": 3176,
      "cid": 3177,
      "focused": 3178,
      "tered": 3179,
      "impul": 3180,
      "increase": 3181,
      "...": 3182,
      "archetypes": 3183,
      "figure": 3184,
      "medicine": 3185,
      "econom": 3186,
      "ities": 3187,
      "tan": 3188,
      "stream": 3189,
      "whol": 3190,
      "grees": 3191,
      "norms": 3192,
      "collapse": 3193,
      "Or": 3194,
      "atures": 3195,
      "vered": 3196,
      "conver": 3197,
      "quod": 3198,
      "Context": 3199,
      "writ": 3200,
      "carri": 3201,
      "scen": 3202,
      "adequ": 3203,
      "ctivity": 3204,
      "pt": 3205,
      "wis": 3206,
      "dies": 3207,
      "illustr": 3208,
      "statement": 3209,
      "fying": 3210,
      "animals": 3211,
      "Relational": 3212,
      "peculi": 3213,
      "Lo": 3214,
      "gate": 3215,
      "encoun": 3216,
      "strict": 3217,
      "appreci": 3218,
      "Au": 3219,
      "reat": 3220,
      "chap": 3221,
      "ribu": 3222,
      "indirect": 3223,
      "organizing": 3224,
      "tendency": 3225,
      "State": 3226,
      "genuine": 3227,
      "anticip": 3228,
      "mathematics": 3229,
      "business": 3230,
      "sympathy": 3231,
      "ial": 3232,
      "vs": 3233,
      "inf": 3234,
      "experiencing": 3235,
      "completely": 3236,
      "contingencies": 3237,
      "choosing": 3238,
      "Such": 3239,
      "”?": 3240,
      "attain": 3241,
      "room": 3242,
      "timeline": 3243,
      "delay": 3244,
      "clearly": 3245,
      "independently": 3246,
      "custom": 3247,
      "observable": 3248,
      "supports": 3249,
      "\"?": 3250,
      "ake": 3251,
      "aced": 3252,
      "gine": 3253,
      "iled": 3254,
      "mess": 3255,
      "propor": 3256,
      "embody": 3257,
      "steps": 3258,
      "involved": 3259,
      "subjects": 3260,
      "Unlike": 3261,
      "superior": 3262,
      "Ti": 3263,
      "itive": 3264,
      "itions": 3265,
      "pen": 3266,
      "dition": 3267,
      "phr": 3268,
      "team": 3269,
      "highlights": 3270,
      "organisms": 3271,
      "prevents": 3272,
      "isolation": 3273,
      "cycle": 3274,
      "clarif": 3275,
      "Ideas": 3276,
      "eti": 3277,
      "ized": 3278,
      "although": 3279,
      "ators": 3280,
      "ared": 3281,
      "soon": 3282,
      "worlds": 3283,
      "towards": 3284,
      "perfection": 3285,
      "testing": 3286,
      "embedded": 3287,
      "humility": 3288,
      "possess": 3289,
      "hence": 3290,
      "oted": 3291,
      "touch": 3292,
      "anity": 3293,
      "offers": 3294,
      "happiness": 3295,
      "Understanding": 3296,
      "passage": 3297,
      "deal": 3298,
      "requiring": 3299,
      "capture": 3300,
      "revealing": 3301,
      "THE": 3302,
      "extreme": 3303,
      "intrinsic": 3304,
      "ease": 3305,
      "ius": 3306,
      "trance": 3307,
      "specul": 3308,
      "defines": 3309,
      "affirm": 3310,
      "focuses": 3311,
      "trajectory": 3312,
      "components": 3313,
      "System": 3314,
      "peculiar": 3315,
      "ret": 3316,
      "aly": 3317,
      "itable": 3318,
      "cosm": 3319,
      "disruptions": 3320,
      "paradigms": 3321,
      "constructs": 3322,
      "eyes": 3323,
      "authorship": 3324,
      "ier": 3325,
      "liter": 3326,
      "near": 3327,
      "rence": 3328,
      "multiverse": 3329,
      "Not": 3330,
      "demands": 3331,
      "sounds": 3332,
      "third": 3333,
      "estry": 3334,
      "motives": 3335,
      "produced": 3336,
      "pie": 3337,
      "increasingly": 3338,
      "wisdom": 3339,
      "bor": 3340,
      "maj": 3341,
      "empower": 3342,
      "Reinfor": 3343,
      "greatest": 3344,
      "pathways": 3345,
      "starting": 3346,
      "aes": 3347,
      "onto": 3348,
      "enjoy": 3349,
      "solutions": 3350,
      "pair": 3351,
      "chool": 3352,
      "spir": 3353,
      "governed": 3354,
      "demonstrate": 3355,
      "glo": 3356,
      "lement": 3357,
      "extern": 3358,
      "syste": 3359,
      "ods": 3360,
      "imagine": 3361,
      "justi": 3362,
      "intuition": 3363,
      "friend": 3364,
      "diminish": 3365,
      "Le": 3366,
      "artic": 3367,
      "heat": 3368,
      "seline": 3369,
      "lost": 3370,
      "obtain": 3371,
      "chosen": 3372,
      "sensi": 3373,
      "employ": 3374,
      "scaling": 3375,
      "judgments": 3376,
      "Ar": 3377,
      "pite": 3378,
      "ref": 3379,
      "leg": 3380,
      "interval": 3381,
      "variable": 3382,
      "sequence": 3383,
      "misalignment": 3384,
      "ordinary": 3385,
      "tapestry": 3386,
      "Id": 3387,
      "lance": 3388,
      "wave": 3389,
      "astic": 3390,
      "asking": 3391,
      "proce": 3392,
      "hypno": 3393,
      "contributing": 3394,
      "supposed": 3395,
      "attempt": 3396,
      "correction": 3397,
      "additional": 3398,
      "spect": 3399,
      "alsch": 3400,
      "consists": 3401,
      "drive": 3402,
      "signal": 3403,
      "clients": 3404,
      "suppres": 3405,
      "initial": 3406,
      "authority": 3407,
      "modify": 3408,
      "Similarly": 3409,
      "hatred": 3410,
      "Dis": 3411,
      "Human": 3412,
      "Walsch": 3413,
      "coura": 3414,
      "expo": 3415,
      "resolution": 3416,
      "consistently": 3417,
      "paths": 3418,
      "analyzing": 3419,
      "probability": 3420,
      "sustaining": 3421,
      "computational": 3422,
      "magne": 3423,
      "Prac": 3424,
      "settings": 3425,
      "quantity": 3426,
      "reconci": 3427,
      "cryst": 3428,
      "Wor": 3429,
      "sal": 3430,
      "total": 3431,
      "deb": 3432,
      "diverse": 3433,
      "che": 3434,
      "quae": 3435,
      "imm": 3436,
      "fulfill": 3437,
      "homeo": 3438,
      "Pri": 3439,
      "cup": 3440,
      "ize": 3441,
      "este": 3442,
      "poli": 3443,
      "finds": 3444,
      "relativity": 3445,
      "jection": 3446,
      "formal": 3447,
      "fav": 3448,
      "hope": 3449,
      "seeking": 3450,
      "considering": 3451,
      "contains": 3452,
      "exercise": 3453,
      "symbolic": 3454,
      "perhaps": 3455,
      "version": 3456,
      "rought": 3457,
      "expresses": 3458,
      "seeks": 3459,
      "signals": 3460,
      "getting": 3461,
      "discussion": 3462,
      "slow": 3463,
      "geome": 3464,
      "graphy": 3465,
      "smaller": 3466,
      "Perception": 3467,
      "advanced": 3468,
      "rhythm": 3469,
      "recalibr": 3470,
      "appropriate": 3471,
      "temper": 3472,
      "major": 3473,
      "vul": 3474,
      "thres": 3475,
      "beauti": 3476,
      "ours": 3477,
      "compa": 3478,
      "sensible": 3479,
      "government": 3480,
      "emphasizing": 3481,
      "stabilize": 3482,
      "demand": 3483,
      "metaphysical": 3484,
      "18": 3485,
      "Fra": 3486,
      "school": 3487,
      "ises": 3488,
      "phra": 3489,
      "experimental": 3490,
      "figu": 3491,
      "refinements": 3492,
      "cumul": 3493,
      "inputs": 3494,
      "several": 3495,
      "systematic": 3496,
      "ark": 3497,
      "eving": 3498,
      "central": 3499,
      "exactly": 3500,
      "push": 3501,
      "theoretical": 3502,
      "procedu": 3503,
      "esteem": 3504,
      "assist": 3505,
      "assign": 3506,
      "formul": 3507,
      "otherwise": 3508,
      "sively": 3509,
      "grasp": 3510,
      "certainly": 3511,
      "arguments": 3512,
      "validation": 3513,
      "classical": 3514,
      "Accordingly": 3515,
      "Our": 3516,
      "eved": 3517,
      "oneness": 3518,
      "enable": 3519,
      "endless": 3520,
      "responsibility": 3521,
      "mention": 3522,
      "depending": 3523,
      "illustrate": 3524,
      "increases": 3525,
      "client": 3526,
      "Time": 3527,
      "Qu": 3528,
      "spo": 3529,
      "leep": 3530,
      "icism": 3531,
      "obst": 3532,
      "knows": 3533,
      "recognizes": 3534,
      "organization": 3535,
      "abstractive": 3536,
      "Com": 3537,
      "brought": 3538,
      "actu": 3539,
      "ested": 3540,
      "fair": 3541,
      "product": 3542,
      "aneous": 3543,
      "patients": 3544,
      "conclusion": 3545,
      "parallel": 3546,
      "Her": 3547,
      "apart": 3548,
      "output": 3549,
      "exploring": 3550,
      "nonexistence": 3551,
      "apparent": 3552,
      "instances": 3553,
      "improving": 3554,
      "risk": 3555,
      "encourage": 3556,
      "fragmentation": 3557,
      "divided": 3558,
      "architecture": 3559,
      "ampli": 3560,
      "exposure": 3561,
      "prote": 3562,
      "plays": 3563,
      "builds": 3564,
      "modifications": 3565,
      "equival": 3566,
      "asis": 3567,
      "conjun": 3568,
      "wide": 3569,
      "hear": 3570,
      "embra": 3571,
      "interrup": 3572,
      "viewed": 3573,
      "relying": 3574,
      "daily": 3575,
      "talk": 3576,
      "phrase": 3577,
      "cement": 3578,
      "perceives": 3579,
      "statements": 3580,
      "eventually": 3581,
      "basis": 3582,
      "holistic": 3583,
      "ught": 3584,
      "regular": 3585,
      "oneself": 3586,
      "electron": 3587,
      "religion": 3588,
      "modifying": 3589,
      "dys": 3590,
      "mach": 3591,
      "tied": 3592,
      "rip": 3593,
      "Theory": 3594,
      "generated": 3595,
      "Reason": 3596,
      "introducing": 3597,
      "errors": 3598,
      "agreeable": 3599,
      "simulations": 3600,
      "frustr": 3601,
      "compassion": 3602,
      "RE": 3603,
      "ession": 3604,
      "conform": 3605,
      "mode": 3606,
      "monit": 3607,
      "extent": 3608,
      "pleas": 3609,
      "limiting": 3610,
      "consideration": 3611,
      "designed": 3612,
      "accuracy": 3613,
      "radical": 3614,
      "remember": 3615,
      ",'": 3616,
      "Po": 3617,
      "ia": 3618,
      "report": 3619,
      "acces": 3620,
      "sil": 3621,
      "mative": 3622,
      "wealth": 3623,
      "genius": 3624,
      "demonstrating": 3625,
      "beautiful": 3626,
      "moves": 3627,
      "master": 3628,
      "quid": 3629,
      "pped": 3630,
      "viewing": 3631,
      "double": 3632,
      "autism": 3633,
      "succession": 3634,
      "investi": 3635,
      "efficiency": 3636,
      "resources": 3637,
      "CT": 3638,
      "Ro": 3639,
      "Whe": 3640,
      "eco": 3641,
      "inds": 3642,
      "quir": 3643,
      "stronger": 3644,
      "modification": 3645,
      "hypothesis": 3646,
      "ration": 3647,
      "sit": 3648,
      "restructuring": 3649,
      "previously": 3650,
      "speaking": 3651,
      "developed": 3652,
      "potentially": 3653,
      "instin": 3654,
      "earli": 3655,
      "manifestation": 3656,
      "resolve": 3657,
      "ian": 3658,
      "ink": 3659,
      "incorpor": 3660,
      "accomp": 3661,
      "integrity": 3662,
      "evolves": 3663,
      "boundary": 3664,
      "sensations": 3665,
      "regarded": 3666,
      "grounded": 3667,
      "cosmic": 3668,
      "job": 3669,
      "inev": 3670,
      "enth": 3671,
      "division": 3672,
      "union": 3673,
      "sonance": 3674,
      "adapting": 3675,
      "instability": 3676,
      "emphasize": 3677,
      "mix": 3678,
      "committed": 3679,
      "Whether": 3680,
      "lands": 3681,
      "today": 3682,
      "imit": 3683,
      "aged": 3684,
      "objecti": 3685,
      "suppose": 3686,
      "indicate": 3687,
      "Princi": 3688,
      "bx": 3689,
      "ware": 3690,
      "ange": 3691,
      "anom": 3692,
      "sty": 3693,
      "ching": 3694,
      "chance": 3695,
      "chron": 3696,
      "mati": 3697,
      "peu": 3698,
      "presup": 3699,
      "graph": 3700,
      "iterations": 3701,
      "filters": 3702,
      "bene": 3703,
      "Seebx": 3704,
      "attractor": 3705,
      "tangible": 3706,
      "quiry": 3707,
      "ea": 3708,
      "hn": 3709,
      "exemp": 3710,
      "implies": 3711,
      "generally": 3712,
      "differentiate": 3713,
      "regarding": 3714,
      "closely": 3715,
      "strengthens": 3716,
      "looking": 3717,
      "possession": 3718,
      "survival": 3719,
      "Of": 3720,
      "vent": 3721,
      "realization": 3722,
      "ensive": 3723,
      "code": 3724,
      "areas": 3725,
      "maxim": 3726,
      "hip": 3727,
      "dependence": 3728,
      "philosopher": 3729,
      "founded": 3730,
      "cultiv": 3731,
      "persistent": 3732,
      "accurate": 3733,
      "maladaptive": 3734,
      "Lan": 3735,
      "gori": 3736,
      "rul": 3737,
      "rever": 3738,
      "rooted": 3739,
      "placed": 3740,
      "opposition": 3741,
      "speed": 3742,
      "extended": 3743,
      "faith": 3744,
      "farther": 3745,
      "sentiments": 3746,
      "temporary": 3747,
      "Reinforcement": 3748,
      "Go": 3749,
      "spr": 3750,
      "restric": 3751,
      "accid": 3752,
      "unless": 3753,
      "motor": 3754,
      "abol": 3755,
      "learns": 3756,
      "transitions": 3757,
      "rained": 3758,
      "narrow": 3759,
      "built": 3760,
      "lacks": 3761,
      "obstac": 3762,
      "gorith": 3763,
      "Sci": 3764,
      "ego": 3765,
      "hal": 3766,
      "tut": 3767,
      "insp": 3768,
      "ctu": 3769,
      "ression": 3770,
      "obvious": 3771,
      "prece": 3772,
      "guil": 3773,
      "despite": 3774,
      "baseline": 3775,
      "succeed": 3776,
      "repeating": 3777,
      "benefit": 3778,
      "explicit": 3779,
      "aesthetic": 3780,
      "perpe": 3781,
      "verb": 3782,
      "ride": 3783,
      "outward": 3784,
      "orient": 3785,
      "occup": 3786,
      "expressing": 3787,
      "variations": 3788,
      "determines": 3789,
      "frequently": 3790,
      "unfolds": 3791,
      "cellular": 3792,
      "assumptions": 3793,
      "Recognizing": 3794,
      "peutic": 3795,
      "rout": 3796,
      "sac": 3797,
      "sider": 3798,
      "owers": 3799,
      "disci": 3800,
      "humanity": 3801,
      "applying": 3802,
      "treating": 3803,
      "concerns": 3804,
      "avail": 3805,
      "hierarchical": 3806,
      "innovation": 3807,
      "arbitrary": 3808,
      "embrace": 3809,
      "Would": 3810,
      "ffold": 3811,
      "sca": 3812,
      "throw": 3813,
      "ende": 3814,
      "stories": 3815,
      "ley": 3816,
      "leave": 3817,
      "rum": 3818,
      "loss": 3819,
      "mankind": 3820,
      "Indivi": 3821,
      "brings": 3822,
      "producing": 3823,
      "interpretations": 3824,
      "writing": 3825,
      "motivation": 3826,
      "domains": 3827,
      "typically": 3828,
      "symmetry": 3829,
      "chapter": 3830,
      "reaction": 3831,
      "titu": 3832,
      "motive": 3833,
      "hidden": 3834,
      "extend": 3835,
      "dict": 3836,
      "developing": 3837,
      "controlling": 3838,
      "differentiated": 3839,
      "turning": 3840,
      "nih": 3841,
      "profession": 3842,
      "analyze": 3843,
      "phrases": 3844,
      "AL": 3845,
      "danger": 3846,
      "atus": 3847,
      "ars": 3848,
      "resto": 3849,
      "habits": 3850,
      "abil": 3851,
      "guity": 3852,
      "goes": 3853,
      "fulness": 3854,
      "presented": 3855,
      "criticism": 3856,
      "image": 3857,
      "characters": 3858,
      "visual": 3859,
      "resolved": 3860,
      "predictable": 3861,
      "benefits": 3862,
      "neutral": 3863,
      "written": 3864,
      "scaffold": 3865,
      "aven": 3866,
      "enrich": 3867,
      "prove": 3868,
      "alies": 3869,
      "logra": 3870,
      "extra": 3871,
      "upd": 3872,
      "drawn": 3873,
      "agreement": 3874,
      "addressing": 3875,
      "physiological": 3876,
      "cular": 3877,
      "wit": 3878,
      "ths": 3879,
      "algorith": 3880,
      "top": 3881,
      "lot": 3882,
      "evo": 3883,
      "breaking": 3884,
      "culture": 3885,
      "guided": 3886,
      "assert": 3887,
      "overwhelmed": 3888,
      "intraverbals": 3889,
      "earlier": 3890,
      "paren": 3891,
      "sleep": 3892,
      "mole": 3893,
      "alizing": 3894,
      "request": 3895,
      "includes": 3896,
      "precisely": 3897,
      "individuation": 3898,
      "anomalies": 3899,
      "Af": 3900,
      "mass": 3901,
      "tes": 3902,
      "illi": 3903,
      "inted": 3904,
      "extends": 3905,
      "licity": 3906,
      "observing": 3907,
      "causal": 3908,
      "stagn": 3909,
      "interacting": 3910,
      "discipl": 3911,
      "echoic": 3912,
      "degrees": 3913,
      "presents": 3914,
      "correspond": 3915,
      "transfer": 3916,
      "Reality": 3917,
      "variability": 3918,
      "assume": 3919,
      "associations": 3920,
      "students": 3921,
      "Newton": 3922,
      "IO": 3923,
      "ned": 3924,
      "reframing": 3925,
      "accor": 3926,
      "cohes": 3927,
      "forts": 3928,
      "eting": 3929,
      "generating": 3930,
      "refined": 3931,
      "recognized": 3932,
      "confusion": 3933,
      "maintains": 3934,
      "introduced": 3935,
      "asserts": 3936,
      "concerned": 3937,
      "expanding": 3938,
      "receive": 3939,
      "Trans": 3940,
      "Language": 3941,
      "Psycho": 3942,
      "dream": 3943,
      "anci": 3944,
      "absur": 3945,
      "admit": 3946,
      "tically": 3947,
      "prefer": 3948,
      "imitation": 3949,
      "reflective": 3950,
      "highly": 3951,
      "sphere": 3952,
      "consequently": 3953,
      "manifests": 3954,
      "electric": 3955,
      "examine": 3956,
      "belongs": 3957,
      "dialo": 3958,
      "Stru": 3959,
      "Where": 3960,
      "phi": 3961,
      "rand": 3962,
      "escape": 3963,
      "root": 3964,
      "ditionally": 3965,
      "versus": 3966,
      "came": 3967,
      "discomfort": 3968,
      "confron": 3969,
      "members": 3970,
      "simplicity": 3971,
      "mid": 3972,
      "sun": 3973,
      "threat": 3974,
      "revo": 3975,
      "ened": 3976,
      "uniform": 3977,
      "definitions": 3978,
      "passing": 3979,
      "scientists": 3980,
      "career": 3981,
      "absolutely": 3982,
      "successful": 3983,
      "classi": 3984,
      "communicate": 3985,
      "mistakes": 3986,
      "figures": 3987,
      "Agree": 3988,
      "nation": 3989,
      "py": 3990,
      "meant": 3991,
      "iden": 3992,
      "sciences": 3993,
      "changed": 3994,
      "everyday": 3995,
      "volu": 3996,
      "avoiding": 3997,
      "cipi": 3998,
      "organize": 3999,
      "optimization": 4000,
      "genetic": 4001,
      "quickly": 4002,
      "Ein": 4003,
      "Non": 4004,
      "cading": 4005,
      "dro": 4006,
      "leng": 4007,
      "unnecessary": 4008,
      "Ther": 4009,
      "throughout": 4010,
      "allowed": 4011,
      "continued": 4012,
      "improvement": 4013,
      "Chris": 4014,
      "opinions": 4015,
      "instructions": 4016,
      "target": 4017,
      "convey": 4018,
      "chemical": 4019,
      "II": 4020,
      "tio": 4021,
      "decl": 4022,
      "arer": 4023,
      "propa": 4024,
      "finally": 4025,
      "fluctu": 4026,
      "easier": 4027,
      "difficulties": 4028,
      "progression": 4029,
      "analogy": 4030,
      "resemblance": 4031,
      "aversive": 4032,
      "nihil": 4033,
      "abilistic": 4034,
      "Agreement": 4035,
      "Einste": 4036,
      "dark": 4037,
      "gap": 4038,
      "nested": 4039,
      "activ": 4040,
      "decre": 4041,
      "logies": 4042,
      "Then": 4043,
      "balances": 4044,
      "efforts": 4045,
      "iteration": 4046,
      "shown": 4047,
      "discovered": 4048,
      "Comp": 4049,
      "metaphor": 4050,
      "destro": 4051,
      "altering": 4052,
      "pursuit": 4053,
      "assumption": 4054,
      "criter": 4055,
      "scenari": 4056,
      "message": 4057,
      "IN": 4058,
      "Oh": 4059,
      "ame": 4060,
      "cers": 4061,
      "flic": 4062,
      "reper": 4063,
      "thera": 4064,
      "depri": 4065,
      "fice": 4066,
      "perceiving": 4067,
      "applies": 4068,
      "intuitive": 4069,
      "critici": 4070,
      "prioritize": 4071,
      "deliberate": 4072,
      "random": 4073,
      "eps": 4074,
      "mas": 4075,
      "sor": 4076,
      "slight": 4077,
      "voc": 4078,
      "search": 4079,
      "features": 4080,
      "personality": 4081,
      "reflections": 4082,
      "integrates": 4083,
      "versely": 4084,
      "marks": 4085,
      "stabilizes": 4086,
      "conceive": 4087,
      "usually": 4088,
      "externally": 4089,
      "late": 4090,
      "yes": 4091,
      "recall": 4092,
      "stasis": 4093,
      "celer": 4094,
      "structurally": 4095,
      "dissonance": 4096,
      "collection": 4097,
      "oscillatory": 4098,
      "courage": 4099,
      "endeav": 4100,
      "therapeutic": 4101,
      "Lear": 4102,
      "Ma": 4103,
      "Tra": 4104,
      "bing": 4105,
      "thread": 4106,
      "embodi": 4107,
      "energies": 4108,
      "velocity": 4109,
      "usual": 4110,
      "Its": 4111,
      "ield": 4112,
      "inction": 4113,
      "inquiry": 4114,
      "reactions": 4115,
      "ery": 4116,
      "topo": 4117,
      "lihood": 4118,
      "contact": 4119,
      "implement": 4120,
      "ership": 4121,
      "wards": 4122,
      "Consider": 4123,
      "strategy": 4124,
      "contradict": 4125,
      "Experi": 4126,
      "empiricism": 4127,
      "numer": 4128,
      "embedding": 4129,
      "initially": 4130,
      "etiam": 4131,
      "reperto": 4132,
      "Euro": 4133,
      "gic": 4134,
      "women": 4135,
      "likelihood": 4136,
      "develops": 4137,
      "counter": 4138,
      "locks": 4139,
      "combine": 4140,
      "probabilistic": 4141,
      "navigating": 4142,
      "critique": 4143,
      "poetry": 4144,
      ".'": 4145,
      "aid": 4146,
      "eties": 4147,
      "stic": 4148,
      "ske": 4149,
      "rea": 4150,
      "cosmo": 4151,
      "formative": 4152,
      "diag": 4153,
      "notes": 4154,
      "plain": 4155,
      "overcome": 4156,
      "transforms": 4157,
      "attach": 4158,
      "signs": 4159,
      "marke": 4160,
      "autonomy": 4161,
      "description": 4162,
      "Christi": 4163,
      "Aware": 4164,
      "Your": 4165,
      "vid": 4166,
      "perform": 4167,
      "unconditioned": 4168,
      "presenting": 4169,
      "taught": 4170,
      "considerable": 4171,
      "commonly": 4172,
      "merit": 4173,
      "encouraging": 4174,
      "defusion": 4175,
      "cataly": 4176,
      "clarify": 4177,
      "magnetic": 4178,
      "Europe": 4179,
      "redefine": 4180,
      "consu": 4181,
      "sudden": 4182,
      "curity": 4183,
      "Int": 4184,
      "operations": 4185,
      "properly": 4186,
      "dedu": 4187,
      "normal": 4188,
      "transcendental": 4189,
      "conversations": 4190,
      "sympto": 4191,
      "Also": 4192,
      "wholly": 4193,
      "proportion": 4194,
      "Gree": 4195,
      "Sh": 4196,
      "bin": 4197,
      "modes": 4198,
      "lose": 4199,
      "ished": 4200,
      "hologra": 4201,
      "surround": 4202,
      "reader": 4203,
      "arising": 4204,
      "contrasts": 4205,
      "reduced": 4206,
      "Cogni": 4207,
      "groups": 4208,
      "Eng": 4209,
      "Adap": 4210,
      "implications": 4211,
      "rewards": 4212,
      "introspection": 4213,
      "totality": 4214,
      "Awareness": 4215,
      "Dr": 4216,
      "Fe": 4217,
      "astr": 4218,
      "fl": 4219,
      "rejection": 4220,
      "ateness": 4221,
      "local": 4222,
      "matters": 4223,
      "denial": 4224,
      "Once": 4225,
      "disrupt": 4226,
      "phase": 4227,
      "contingency": 4228,
      "hypothe": 4229,
      "Like": 4230,
      "speculative": 4231,
      "absurd": 4232,
      "cris": 4233,
      "fab": 4234,
      "psy": 4235,
      "intim": 4236,
      "entail": 4237,
      "unlock": 4238,
      "held": 4239,
      "pression": 4240,
      "reinforcers": 4241,
      "herence": 4242,
      "continues": 4243,
      "spaces": 4244,
      "intelligible": 4245,
      "movements": 4246,
      "**,": 4247,
      "stabilizing": 4248,
      "tendencies": 4249,
      "combination": 4250,
      "evaluate": 4251,
      "conventional": 4252,
      "Absolute": 4253,
      "Learning": 4254,
      "uti": 4255,
      "cog": 4256,
      "civi": 4257,
      "contribu": 4258,
      "keeps": 4259,
      "places": 4260,
      "ferences": 4261,
      "suggestion": 4262,
      "mechanical": 4263,
      "relies": 4264,
      "validity": 4265,
      "rapid": 4266,
      "Define": 4267,
      "resulting": 4268,
      "atives": 4269,
      "fancy": 4270,
      "hun": 4271,
      "ip": 4272,
      "ior": 4273,
      "nical": 4274,
      "thri": 4275,
      "reci": 4276,
      "dissolve": 4277,
      "imply": 4278,
      "generation": 4279,
      "variation": 4280,
      "itude": 4281,
      "Only": 4282,
      "abstractions": 4283,
      "struggles": 4284,
      "smoo": 4285,
      "characteristics": 4286,
      "born": 4287,
      "cut": 4288,
      "exces": 4289,
      "unit": 4290,
      "plane": 4291,
      "food": 4292,
      "Inte": 4293,
      "responds": 4294,
      "persons": 4295,
      "variety": 4296,
      "Contra": 4297,
      "happy": 4298,
      "sched": 4299,
      "mirroring": 4300,
      "bodily": 4301,
      "electro": 4302,
      "piece": 4303,
      "dialogue": 4304,
      "His": 4305,
      "mone": 4306,
      "radi": 4307,
      "distant": 4308,
      "fire": 4309,
      "generates": 4310,
      "causing": 4311,
      "conflicting": 4312,
      "simulate": 4313,
      "prompts": 4314,
      "classes": 4315,
      "programming": 4316,
      "facilitate": 4317,
      "construction": 4318,
      "obligation": 4319,
      "permanent": 4320,
      "straight": 4321,
      "identical": 4322,
      "Einstein": 4323,
      "Rules": 4324,
      "kinds": 4325,
      "table": 4326,
      "wal": 4327,
      "metic": 4328,
      "post": 4329,
      "ponents": 4330,
      "distur": 4331,
      "thereby": 4332,
      "bio": 4333,
      "voice": 4334,
      "remaining": 4335,
      "separable": 4336,
      "conflicts": 4337,
      "ethics": 4338,
      "management": 4339,
      "conceived": 4340,
      "promote": 4341,
      "After": 4342,
      "fabric": 4343,
      "cision": 4344,
      "ecu": 4345,
      "disorder": 4346,
      "reading": 4347,
      "holding": 4348,
      "studies": 4349,
      "durations": 4350,
      "accurately": 4351,
      "instruction": 4352,
      "replic": 4353,
      "nuance": 4354,
      "bridge": 4355,
      "stagnation": 4356,
      "Apophatic": 4357,
      "bar": 4358,
      "gri": 4359,
      "oud": 4360,
      "accumul": 4361,
      "indifferen": 4362,
      "stands": 4363,
      "approxim": 4364,
      "hands": 4365,
      "fails": 4366,
      "emphasis": 4367,
      "predictive": 4368,
      "distinguishes": 4369,
      "destru": 4370,
      "sources": 4371,
      "acknowledges": 4372,
      "safety": 4373,
      "titude": 4374,
      "ancient": 4375,
      "Therap": 4376,
      "4D": 4377,
      "AN": 4378,
      "Fin": 4379,
      "Mind": 4380,
      "Par": 4381,
      "apophatic": 4382,
      "bir": 4383,
      "incl": 4384,
      "section": 4385,
      "rable": 4386,
      "gets": 4387,
      "engages": 4388,
      "production": 4389,
      "determining": 4390,
      "occurring": 4391,
      "treated": 4392,
      "osity": 4393,
      "digital": 4394,
      "remarkable": 4395,
      "adequate": 4396,
      "hor": 4397,
      "tures": 4398,
      "retri": 4399,
      "det": 4400,
      "generalized": 4401,
      "calm": 4402,
      "calcul": 4403,
      "provided": 4404,
      "followed": 4405,
      "cascading": 4406,
      "broken": 4407,
      "interests": 4408,
      "guidance": 4409,
      "conclusions": 4410,
      "contained": 4411,
      "prompt": 4412,
      "impulse": 4413,
      "Emer": 4414,
      "dut": 4415,
      "mble": 4416,
      "isation": 4417,
      "conti": 4418,
      "essay": 4419,
      "propose": 4420,
      "guar": 4421,
      "crip": 4422,
      "transforming": 4423,
      "engaged": 4424,
      "affor": 4425,
      "mission": 4426,
      "medium": 4427,
      "etheric": 4428,
      "maintained": 4429,
      "blind": 4430,
      "Truth": 4431,
      "decide": 4432,
      "guilt": 4433,
      "Ob": 4434,
      "ii": 4435,
      "ker": 4436,
      "tun": 4437,
      "tree": 4438,
      "execu": 4439,
      "proposition": 4440,
      "whom": 4441,
      "trained": 4442,
      "achieving": 4443,
      "therapist": 4444,
      "remote": 4445,
      "selection": 4446,
      "chakra": 4447,
      "accessible": 4448,
      "duty": 4449,
      "Imag": 4450,
      "ired": 4451,
      "pu": 4452,
      "tren": 4453,
      "ising": 4454,
      "sex": 4455,
      "select": 4456,
      "except": 4457,
      "unknown": 4458,
      "ray": 4459,
      "selfhood": 4460,
      "Their": 4461,
      "finan": 4462,
      "disconnected": 4463,
      "timeless": 4464,
      "balancing": 4465,
      "emerging": 4466,
      "determination": 4467,
      "association": 4468,
      "keeping": 4469,
      "conclude": 4470,
      "vibration": 4471,
      "appreh": 4472,
      "igno": 4473,
      "adop": 4474,
      "spoken": 4475,
      "available": 4476,
      "Integr": 4477,
      "Imagine": 4478,
      "Ano": 4479,
      "Ger": 4480,
      "dow": 4481,
      "fu": 4482,
      "gods": 4483,
      "tam": 4484,
      "thous": 4485,
      "inven": 4486,
      "meta": 4487,
      "forcing": 4488,
      "existential": 4489,
      "transformative": 4490,
      "ggers": 4491,
      "physic": 4492,
      "manifestations": 4493,
      "resonate": 4494,
      "economic": 4495,
      "political": 4496,
      "Principle": 4497,
      "obstacles": 4498,
      "restore": 4499,
      "algorithms": 4500,
      "smooth": 4501,
      "App": 4502,
      "May": 4503,
      "ff": 4504,
      "tw": 4505,
      "acceler": 4506,
      "conv": 4507,
      "dians": 4508,
      "wee": 4509,
      "experiential": 4510,
      "discrete": 4511,
      "got": 4512,
      "efficient": 4513,
      "triggers": 4514,
      "demonstrates": 4515,
      "authenticity": 4516,
      "Philo": 4517,
      "anteced": 4518,
      "recipro": 4519,
      "van": 4520,
      "vous": 4521,
      "backs": 4522,
      "comprehensive": 4523,
      "prag": 4524,
      "measura": 4525,
      "composed": 4526,
      "half": 4527,
      "Mem": 4528,
      "Wi": 4529,
      "spon": 4530,
      "recor": 4531,
      "exten": 4532,
      "mentary": 4533,
      "pop": 4534,
      "shadow": 4535,
      "societies": 4536,
      "traits": 4537,
      "surve": 4538,
      "objectivity": 4539,
      "closed": 4540,
      "archetypal": 4541,
      "Mean": 4542,
      "wonder": 4543,
      "Critics": 4544,
      "check": 4545,
      "length": 4546,
      "schedules": 4547,
      "Have": 4548,
      "Uni": 4549,
      "tin": 4550,
      "alysis": 4551,
      "uncover": 4552,
      "notions": 4553,
      "intended": 4554,
      "recurring": 4555,
      "serving": 4556,
      "productive": 4557,
      "misaligned": 4558,
      "adjustment": 4559,
      "schedu": 4560,
      "destabili": 4561,
      "weakness": 4562,
      "opposites": 4563,
      "global": 4564,
      "mentioned": 4565,
      "money": 4566,
      "):": 4567,
      "Ear": 4568,
      "gl": 4569,
      "yield": 4570,
      "incomplete": 4571,
      "andon": 4572,
      "coexist": 4573,
      "ull": 4574,
      "uration": 4575,
      "utter": 4576,
      "obsc": 4577,
      "identities": 4578,
      "adaptable": 4579,
      "consistencies": 4580,
      "preserve": 4581,
      "fron": 4582,
      "infin": 4583,
      "recomm": 4584,
      "ingly": 4585,
      "sition": 4586,
      "vide": 4587,
      "compound": 4588,
      "discer": 4589,
      "caused": 4590,
      "identifies": 4591,
      "bias": 4592,
      "functioning": 4593,
      "trigger": 4594,
      "intentionally": 4595,
      "authentically": 4596,
      "belonging": 4597,
      "mistake": 4598,
      "overwhelming": 4599,
      "dialec": 4600,
      "distortion": 4601,
      "Struct": 4602,
      "repertoire": 4603,
      "psych": 4604,
      "excessive": 4605,
      "Another": 4606,
      "Bi": 4607,
      "Fo": 4608,
      "_A": 4609,
      "tac": 4610,
      "replace": 4611,
      "acknowledge": 4612,
      "confirm": 4613,
      "dily": 4614,
      "viv": 4615,
      "uncertain": 4616,
      "prop": 4617,
      "qua": 4618,
      "phic": 4619,
      "amoun": 4620,
      "service": 4621,
      "posits": 4622,
      "medical": 4623,
      "big": 4624,
      "affir": 4625,
      "Nothing": 4626,
      "stuck": 4627,
      "reaching": 4628,
      "More": 4629,
      "praise": 4630,
      "acqua": 4631,
      "immune": 4632,
      "equivalence": 4633,
      "Within": 4634,
      "00": 4635,
      "Emo": 4636,
      "Further": 4637,
      "IT": 4638,
      "Mic": 4639,
      "none": 4640,
      "scar": 4641,
      "zations": 4642,
      "regi": 4643,
      "isi": 4644,
      "isition": 4645,
      "security": 4646,
      "defe": 4647,
      "unexpected": 4648,
      "trical": 4649,
      "disposition": 4650,
      "framed": 4651,
      "versal": 4652,
      "grade": 4653,
      "causation": 4654,
      "infinitely": 4655,
      "drives": 4656,
      "Additionally": 4657,
      "sentence": 4658,
      "vulner": 4659,
      "diagno": 4660,
      "financial": 4661,
      "measurable": 4662,
      "Mar": 4663,
      "mary": 4664,
      "reactive": 4665,
      "alpha": 4666,
      "exha": 4667,
      "lif": 4668,
      "ides": 4669,
      "reasons": 4670,
      "train": 4671,
      "stitu": 4672,
      "asked": 4673,
      "balanced": 4674,
      "aims": 4675,
      "virtues": 4676,
      "fragmented": 4677,
      "occasions": 4678,
      "connecting": 4679,
      "optimize": 4680,
      "waves": 4681,
      "detailed": 4682,
      "Differen": 4683,
      "accepting": 4684,
      "distortions": 4685,
      "empowering": 4686,
      "Cognitive": 4687,
      "Mat": 4688,
      "lau": 4689,
      "ule": 4690,
      "stone": 4691,
      "bear": 4692,
      "abandon": 4693,
      "plant": 4694,
      "distort": 4695,
      "generalization": 4696,
      "tries": 4697,
      "assuming": 4698,
      "listen": 4699,
      "reaches": 4700,
      "promoting": 4701,
      "reconcile": 4702,
      "Frame": 4703,
      "ripple": 4704,
      "destroy": 4705,
      "High": 4706,
      "Ku": 4707,
      "Know": 4708,
      "Met": 4709,
      "axi": 4710,
      "ball": 4711,
      "injustice": 4712,
      "inconsistencies": 4713,
      "ats": 4714,
      "size": 4715,
      "dead": 4716,
      "forced": 4717,
      "losing": 4718,
      "lue": 4719,
      "extinction": 4720,
      "socially": 4721,
      "alignments": 4722,
      "continually": 4723,
      "expands": 4724,
      "closer": 4725,
      "received": 4726,
      "prompting": 4727,
      "atomic": 4728,
      "chaos": 4729,
      "encounter": 4730,
      "dysfunction": 4731,
      "rulers": 4732,
      "professional": 4733,
      "vivacity": 4734,
      "ACT": 4735,
      "Pattern": 4736,
      "SE": 4737,
      "dit": 4738,
      "spar": 4739,
      "tly": 4740,
      "conce": 4741,
      "deli": 4742,
      "ches": 4743,
      "units": 4744,
      "ulate": 4745,
      "compe": 4746,
      "alizes": 4747,
      "disease": 4748,
      "immer": 4749,
      "posing": 4750,
      "empty": 4751,
      "sophistic": 4752,
      "passes": 4753,
      "lame": 4754,
      "boundless": 4755,
      "location": 4756,
      "measured": 4757,
      "virtuous": 4758,
      "enhances": 4759,
      "textual": 4760,
      "categori": 4761,
      "archetype": 4762,
      "comprehension": 4763,
      "highlighting": 4764,
      "reshape": 4765,
      "applications": 4766,
      "threshold": 4767,
      "exempli": 4768,
      "Psychology": 4769,
      "execution": 4770,
      "MO": 4771,
      "Str": 4772,
      "barri": 4773,
      "mm": 4774,
      "mise": 4775,
      "recording": 4776,
      "aboration": 4777,
      "paint": 4778,
      "arities": 4779,
      "requis": 4780,
      "emotionally": 4781,
      "charge": 4782,
      "interprets": 4783,
      "simpli": 4784,
      "deny": 4785,
      "affects": 4786,
      "affected": 4787,
      "supporting": 4788,
      "Core": 4789,
      "collabor": 4790,
      "educational": 4791,
      "tility": 4792,
      "exerc": 4793,
      "periods": 4794,
      "architect": 4795,
      "labels": 4796,
      "leaving": 4797,
      "obscure": 4798,
      "Kuhn": 4799,
      "Ok": 4800,
      "Oper": 4801,
      "Pers": 4802,
      "Sub": 4803,
      "cure": 4804,
      "flaw": 4805,
      "gar": 4806,
      "tests": 4807,
      "adds": 4808,
      "plic": 4809,
      "indivisible": 4810,
      "undermin": 4811,
      "imbalances": 4812,
      "ctively": 4813,
      "corresponding": 4814,
      "cribe": 4815,
      "licate": 4816,
      "grams": 4817,
      "woven": 4818,
      "increased": 4819,
      "technical": 4820,
      "distinguishing": 4821,
      "examining": 4822,
      "starts": 4823,
      "measures": 4824,
      "True": 4825,
      "linked": 4826,
      "leaves": 4827,
      "evoke": 4828,
      "volume": 4829,
      "hoc": 4830,
      "revis": 4831,
      "confin": 4832,
      "demo": 4833,
      "percipi": 4834,
      "curi": 4835,
      "cast": 4836,
      "commod": 4837,
      "precision": 4838,
      "meditation": 4839,
      "philoso": 4840,
      "color": 4841,
      "scalable": 4842,
      "metabol": 4843,
      "stabilization": 4844,
      "excite": 4845,
      "accepted": 4846,
      "appreciate": 4847,
      "Identity": 4848,
      "entailment": 4849,
      ")?": 4850,
      "Aris": 4851,
      "Imp": 4852,
      "Nor": 4853,
      "Nature": 4854,
      "Other": 4855,
      "flo": 4856,
      "parent": 4857,
      "vas": 4858,
      "tho": 4859,
      "rem": 4860,
      "reco": 4861,
      "react": 4862,
      "ticed": 4863,
      "ita": 4864,
      "dum": 4865,
      "guous": 4866,
      "shar": 4867,
      "subsequ": 4868,
      "foreign": 4869,
      "nervous": 4870,
      "nonverbal": 4871,
      "bounded": 4872,
      "reliable": 4873,
      "establishing": 4874,
      "angle": 4875,
      "explanations": 4876,
      "attempts": 4877,
      "commitment": 4878,
      "hierarchy": 4879,
      "analog": 4880,
      "attribute": 4881,
      "technology": 4882,
      "homeostasis": 4883,
      "outputs": 4884,
      "Should": 4885,
      "Philosoph": 4886,
      "spont": 4887,
      "Okay": 4888,
      "Bal": 4889,
      "Many": 4890,
      "Spe": 4891,
      "forth": 4892,
      "addition": 4893,
      "omni": 4894,
      "meanings": 4895,
      "organized": 4896,
      "filled": 4897,
      "projects": 4898,
      "details": 4899,
      "intervals": 4900,
      "geometry": 4901,
      "compatible": 4902,
      "conjunction": 4903,
      "Individual": 4904,
      "odo": 4905,
      "seam": 4906,
      "pol": 4907,
      "helpful": 4908,
      "affections": 4909,
      "stimulation": 4910,
      "tested": 4911,
      "letting": 4912,
      "richness": 4913,
      "brief": 4914,
      "Phys": 4915,
      "contemplation": 4916,
      "minimal": 4917,
      "manipul": 4918,
      "frustration": 4919,
      "schedule": 4920,
      "Right": 4921,
      "ban": 4922,
      "dle": 4923,
      "ie": 4924,
      "lab": 4925,
      "onic": 4926,
      "realignment": 4927,
      "ense": 4928,
      "accommod": 4929,
      "cting": 4930,
      "programs": 4931,
      "adding": 4932,
      "orial": 4933,
      "partly": 4934,
      "represented": 4935,
      "accordingly": 4936,
      "harmonious": 4937,
      "combin": 4938,
      "contingent": 4939,
      "Recursion": 4940,
      "successive": 4941,
      "proceeds": 4942,
      "constitu": 4943,
      "neurological": 4944,
      "carries": 4945,
      "objectification": 4946,
      "week": 4947,
      "Aristo": 4948,
      "seamless": 4949,
      "blue": 4950,
      "obe": 4951,
      "lius": 4952,
      "chi": 4953,
      "ched": 4954,
      "essentially": 4955,
      "conceptu": 4956,
      "factor": 4957,
      "determinism": 4958,
      "constrained": 4959,
      "explaining": 4960,
      "adjusts": 4961,
      "stages": 4962,
      "advoc": 4963,
      "Social": 4964,
      "disruption": 4965,
      "reached": 4966,
      "conversational": 4967,
      "visibility": 4968,
      "removed": 4969,
      "regulate": 4970,
      "illustrates": 4971,
      "procedure": 4972,
      "accordance": 4973,
      "Greek": 4974,
      "Finally": 4975,
      "Pure": 4976,
      "lap": 4977,
      "unresolved": 4978,
      "base": 4979,
      "locking": 4980,
      "regards": 4981,
      "regardless": 4982,
      "negation": 4983,
      "achieved": 4984,
      "constructed": 4985,
      "primarily": 4986,
      "simulated": 4987,
      "definitely": 4988,
      "autonomous": 4989,
      "acquisition": 4990,
      "instantaneous": 4991,
      "hypnotic": 4992,
      "monitoring": 4993,
      "phies": 4994,
      "deprivation": 4995,
      "detach": 4996,
      "Em": 4997,
      "Mental": 4998,
      "black": 4999,
      "gest": 5000,
      "altered": 5001,
      "viz": 5002,
      "managing": 5003,
      "enduring": 5004,
      "needing": 5005,
      "command": 5006,
      "playing": 5007,
      "missing": 5008,
      "affection": 5009,
      "independence": 5010,
      "Proponents": 5011,
      "synthesis": 5012,
      "answers": 5013,
      "temporality": 5014,
      "measuring": 5015,
      "vices": 5016,
      "technological": 5017,
      "applicable": 5018,
      "varying": 5019,
      "Auto": 5020,
      "sacri": 5021,
      "scaffolding": 5022,
      "skep": 5023,
      "Therapy": 5024,
      "requisite": 5025,
      "4b": 5026,
      "Hence": 5027,
      "nut": 5028,
      "otic": 5029,
      "pay": 5030,
      "rical": 5031,
      "incar": 5032,
      "inseparable": 5033,
      "onal": 5034,
      "recent": 5035,
      "iss": 5036,
      "edge": 5037,
      "devi": 5038,
      "reinforcer": 5039,
      "strings": 5040,
      "simil": 5041,
      "background": 5042,
      "Monistic": 5043,
      "Analysis": 5044,
      "interpreting": 5045,
      "reduces": 5046,
      "probably": 5047,
      "flows": 5048,
      "Model": 5049,
      "repeatedly": 5050,
      "motivated": 5051,
      "preserving": 5052,
      "Tracking": 5053,
      "acknowledging": 5054,
      "chakras": 5055,
      "asticity": 5056,
      "landscape": 5057,
      "topography": 5058,
      "Memory": 5059,
      ".)": 5060,
      "16": 5061,
      "1A": 5062,
      "Op": 5063,
      "Rep": 5064,
      "Sha": 5065,
      "izing": 5066,
      "nun": 5067,
      "pan": 5068,
      "sort": 5069,
      "reframe": 5070,
      "retention": 5071,
      "realize": 5072,
      "status": 5073,
      "confir": 5074,
      "area": 5075,
      "wel": 5076,
      "ceptive": 5077,
      "teenth": 5078,
      "operational": 5079,
      "adaptations": 5080,
      "rigidity": 5081,
      "lively": 5082,
      "sustainable": 5083,
      "demonstrated": 5084,
      "breaks": 5085,
      "superficial": 5086,
      "comfortable": 5087,
      "attributes": 5088,
      "Systems": 5089,
      "literature": 5090,
      "perpetu": 5091,
      "readily": 5092,
      "Contrast": 5093,
      "curiosity": 5094,
      ".[": 5095,
      "17": 5096,
      "AT": 5097,
      "fing": 5098,
      "hin": 5099,
      "seed": 5100,
      "promis": 5101,
      "interference": 5102,
      "tric": 5103,
      "pretend": 5104,
      "impose": 5105,
      "distr": 5106,
      "teness": 5107,
      "override": 5108,
      "grand": 5109,
      "subli": 5110,
      "surpr": 5111,
      "separateness": 5112,
      "purposes": 5113,
      "reliance": 5114,
      "supported": 5115,
      "combined": 5116,
      "secondary": 5117,
      "enhancing": 5118,
      "persistence": 5119,
      "lasting": 5120,
      "strengths": 5121,
      "Respon": 5122,
      "acquire": 5123,
      "dominant": 5124,
      "Primary": 5125,
      "pleasures": 5126,
      "reporting": 5127,
      "symptoms": 5128,
      "Dist": 5129,
      "block": 5130,
      "vative": 5131,
      "tow": 5132,
      "lize": 5133,
      "verif": 5134,
      "quo": 5135,
      "dualism": 5136,
      "boo": 5137,
      "engine": 5138,
      "Conversely": 5139,
      "satisfy": 5140,
      "drawing": 5141,
      "struggling": 5142,
      "Second": 5143,
      "student": 5144,
      "machine": 5145,
      "eah": 5146,
      "Eth": 5147,
      "vable": 5148,
      "tism": 5149,
      "tique": 5150,
      "vivid": 5151,
      "heaven": 5152,
      "neur": 5153,
      "load": 5154,
      "five": 5155,
      "illumin": 5156,
      "integral": 5157,
      "colour": 5158,
      "separated": 5159,
      "images": 5160,
      "resemble": 5161,
      "distinctly": 5162,
      "intense": 5163,
      "risks": 5164,
      "directive": 5165,
      "combining": 5166,
      "mihi": 5167,
      "thorough": 5168,
      "otnote": 5169,
      "opposing": 5170,
      "symbols": 5171,
      "claims": 5172,
      "automatically": 5173,
      "filtering": 5174,
      "style": 5175,
      "Science": 5176,
      "crisis": 5177,
      "Para": 5178,
      "Integration": 5179,
      "Law": 5180,
      "OF": 5181,
      "Pe": 5182,
      "gently": 5183,
      "hund": 5184,
      "mate": 5185,
      "inher": 5186,
      "enco": 5187,
      "vere": 5188,
      "edition": 5189,
      "exchange": 5190,
      "cost": 5191,
      "hael": 5192,
      "prep": 5193,
      "preferences": 5194,
      "minor": 5195,
      "myth": 5196,
      "interpreted": 5197,
      "reliability": 5198,
      "inside": 5199,
      "easiness": 5200,
      "Together": 5201,
      "numbers": 5202,
      "sustained": 5203,
      "assessment": 5204,
      "arrive": 5205,
      "descriptions": 5206,
      "constitut": 5207,
      "crystal": 5208,
      "favor": 5209,
      "inevitable": 5210,
      "beneficial": 5211,
      "discipline": 5212,
      "scenarios": 5213,
      "hundred": 5214,
      "Vi": 5215,
      "gal": 5216,
      "gru": 5217,
      "ization": 5218,
      "mac": 5219,
      "spl": 5220,
      "inform": 5221,
      "tiation": 5222,
      "item": 5223,
      "accoun": 5224,
      "became": 5225,
      "conscience": 5226,
      "ditions": 5227,
      "hable": 5228,
      "relax": 5229,
      "conceptions": 5230,
      "fast": 5231,
      "empathy": 5232,
      "simpler": 5233,
      "fortune": 5234,
      "evolutionary": 5235,
      "sentiment": 5236,
      "comprehend": 5237,
      "absor": 5238,
      "preservation": 5239,
      "happened": 5240,
      "trajectories": 5241,
      "acquired": 5242,
      "Practical": 5243,
      "ALL": 5244,
      "civil": 5245,
      "analogous": 5246,
      "Free": 5247,
      "Hmm": 5248,
      "Lat": 5249,
      "nations": 5250,
      "vity": 5251,
      "convic": 5252,
      "undifferentiated": 5253,
      "irst": 5254,
      "intent": 5255,
      "comparing": 5256,
      "alia": 5257,
      "trou": 5258,
      "gues": 5259,
      "ishing": 5260,
      "clin": 5261,
      "biases": 5262,
      "growing": 5263,
      "equality": 5264,
      "simpl": 5265,
      "lished": 5266,
      "parame": 5267,
      "possibly": 5268,
      "Chall": 5269,
      "expectation": 5270,
      "correctly": 5271,
      "judgement": 5272,
      "discrimination": 5273,
      "standards": 5274,
      "introspective": 5275,
      "carried": 5276,
      "Good": 5277,
      "thousand": 5278,
      "Marcus": 5279,
      "Plan": 5280,
      "blo": 5281,
      "rit": 5282,
      "ution": 5283,
      "wants": 5284,
      "inference": 5285,
      "lever": 5286,
      "united": 5287,
      "uneasiness": 5288,
      "height": 5289,
      "loses": 5290,
      "pread": 5291,
      "paper": 5292,
      "natura": 5293,
      "presentation": 5294,
      "reflex": 5295,
      "requests": 5296,
      "biology": 5297,
      "similarly": 5298,
      "suffer": 5299,
      "considers": 5300,
      "occurrence": 5301,
      "driving": 5302,
      "universally": 5303,
      "**.": 5304,
      "assumes": 5305,
      "frequencies": 5306,
      "strongly": 5307,
      "vibrations": 5308,
      "running": 5309,
      "confident": 5310,
      "observations": 5311,
      "worthy": 5312,
      "shew": 5313,
      "chaotic": 5314,
      "homeostatic": 5315,
      "ecosystems": 5316,
      "criticizes": 5317,
      "astral": 5318,
      "(\"": 5319,
      "First": 5320,
      "Rule": 5321,
      "ago": 5322,
      "bon": 5323,
      "cules": 5324,
      "density": 5325,
      "lam": 5326,
      "ns": 5327,
      "powers": 5328,
      "vital": 5329,
      "condem": 5330,
      "delicate": 5331,
      "via": 5332,
      "heard": 5333,
      "raw": 5334,
      "feature": 5335,
      "opposed": 5336,
      "minute": 5337,
      "learner": 5338,
      "differs": 5339,
      "misalignments": 5340,
      "smallest": 5341,
      "substances": 5342,
      "evaluation": 5343,
      "evaluating": 5344,
      "waiting": 5345,
      "Sometimes": 5346,
      "advantages": 5347,
      "targe": 5348,
      "preceding": 5349,
      "criterion": 5350,
      "endeavour": 5351,
      "Feedback": 5352,
      "sophisticated": 5353,
      "nutri": 5354,
      "Aure": 5355,
      "Mr": 5356,
      "gs": 5357,
      "nes": 5358,
      "rin": 5359,
      "encompas": 5360,
      "org": 5361,
      "ouse": 5362,
      "stor": 5363,
      "secre": 5364,
      "congru": 5365,
      "unable": 5366,
      "nomen": 5367,
      "noticed": 5368,
      "prov": 5369,
      "promise": 5370,
      "usory": 5371,
      "distress": 5372,
      "distribut": 5373,
      "simulation": 5374,
      "spacetime": 5375,
      "products": 5376,
      "suffici": 5377,
      "drift": 5378,
      "failing": 5379,
      "onesty": 5380,
      "listening": 5381,
      "discussed": 5382,
      "hesitation": 5383,
      "looks": 5384,
      "individuated": 5385,
      "spectrum": 5386,
      "recalibration": 5387,
      "procedures": 5388,
      "conformity": 5389,
      "Michael": 5390,
      "Aurelius": 5391,
      "fate": 5392,
      "youn": 5393,
      "zz": 5394,
      "stance": 5395,
      "copy": 5396,
      "ctor": 5397,
      "persu": 5398,
      "Think": 5399,
      "interdependence": 5400,
      "likewise": 5401,
      "grant": 5402,
      "ishes": 5403,
      "grades": 5404,
      "sequences": 5405,
      "member": 5406,
      "memories": 5407,
      "predictions": 5408,
      "intentions": 5409,
      "governs": 5410,
      "organizes": 5411,
      "volunt": 5412,
      "conveni": 5413,
      "chronic": 5414,
      "contradictory": 5415,
      "hinder": 5416,
      "4th": 5417,
      "RA": 5418,
      "oto": 5419,
      "rer": 5420,
      "ering": 5421,
      "deception": 5422,
      "heres": 5423,
      "proje": 5424,
      "pace": 5425,
      "epis": 5426,
      "Refle": 5427,
      "invites": 5428,
      "appearing": 5429,
      "representing": 5430,
      "schol": 5431,
      "electrical": 5432,
      "discussions": 5433,
      "examination": 5434,
      "planning": 5435,
      "component": 5436,
      "adopt": 5437,
      "embodying": 5438,
      "justify": 5439,
      "Identi": 5440,
      "amplify": 5441,
      "molecules": 5442,
      "convin": 5443,
      "amount": 5444,
      "confined": 5445,
      "metabolic": 5446,
      "12": 5447,
      "Im": 5448,
      "sin": 5449,
      "tute": 5450,
      "win": 5451,
      "exec": 5452,
      "resh": 5453,
      "nec": 5454,
      "adversity": 5455,
      "embodies": 5456,
      "interacts": 5457,
      "ideals": 5458,
      "themes": 5459,
      "strange": 5460,
      "faced": 5461,
      "generalize": 5462,
      "perceivers": 5463,
      "mediate": 5464,
      "lighten": 5465,
      "trial": 5466,
      "avoids": 5467,
      "derive": 5468,
      "sentience": 5469,
      "cells": 5470,
      "resembling": 5471,
      "neutr": 5472,
      "findings": 5473,
      "spring": 5474,
      "disturb": 5475,
      "Footnote": 5476,
      "Republic": 5477,
      "(“": 5478,
      "Cho": 5479,
      "Fun": 5480,
      "Lu": 5481,
      "card": 5482,
      "cles": 5483,
      "jar": 5484,
      "mation": 5485,
      "tantum": 5486,
      "vit": 5487,
      "inward": 5488,
      "reacting": 5489,
      "encre": 5490,
      "told": 5491,
      "ressed": 5492,
      "discourse": 5493,
      "sake": 5494,
      "ledge": 5495,
      "overlook": 5496,
      "adapts": 5497,
      "illusory": 5498,
      "Any": 5499,
      "deepest": 5500,
      "assumed": 5501,
      "falling": 5502,
      "titioners": 5503,
      "pursue": 5504,
      "returns": 5505,
      "rhythms": 5506,
      "friends": 5507,
      "labeling": 5508,
      "constructive": 5509,
      "discriminative": 5510,
      "Critique": 5511,
      "ambiguity": 5512,
      "Words": 5513,
      "silence": 5514,
      "cohesive": 5515,
      "embodied": 5516,
      "holographic": 5517,
      "trends": 5518,
      "_A_": 5519,
      "sharp": 5520,
      "subsequent": 5521,
      ".]": 5522,
      "ER": 5523,
      "Emp": 5524,
      "blocks": 5525,
      "dism": 5526,
      "land": 5527,
      "og": 5528,
      "rep": 5529,
      "till": 5530,
      "utes": 5531,
      "elic": 5532,
      "guess": 5533,
      "responsi": 5534,
      "overly": 5535,
      "everywhere": 5536,
      "effic": 5537,
      "lessness": 5538,
      "mindfulness": 5539,
      "conditional": 5540,
      "varied": 5541,
      "questioning": 5542,
      "carefully": 5543,
      "talking": 5544,
      "researchers": 5545,
      "collaboration": 5546,
      "ignor": 5547,
      "staying": 5548,
      "label": 5549,
      "mistaken": 5550,
      "violence": 5551,
      "extremely": 5552,
      "affirmation": 5553,
      "Arch": 5554,
      "revolution": 5555,
      "nuanced": 5556,
      "invention": 5557,
      "sublime": 5558,
      "organs": 5559,
      "Multi": 5560,
      "__": 5561,
      "eo": 5562,
      "ox": 5563,
      "remind": 5564,
      "esty": 5565,
      "arts": 5566,
      "map": 5567,
      "poor": 5568,
      "ffective": 5569,
      "cade": 5570,
      "prepar": 5571,
      "bot": 5572,
      "oriz": 5573,
      "names": 5574,
      "passed": 5575,
      "openness": 5576,
      "strategic": 5577,
      "prediction": 5578,
      "lecture": 5579,
      "frequent": 5580,
      "artist": 5581,
      "Hermetic": 5582,
      "cultivate": 5583,
      "Meaning": 5584,
      "Challen": 5585,
      "13": 5586,
      "Test": 5587,
      "ib": 5588,
      "wat": 5589,
      "wind": 5590,
      "outer": 5591,
      "urn": 5592,
      "partial": 5593,
      "predetermined": 5594,
      "beta": 5595,
      "maybe": 5596,
      "tative": 5597,
      "akin": 5598,
      "complexities": 5599,
      "changeable": 5600,
      "ilibri": 5601,
      "describing": 5602,
      "apping": 5603,
      "teaches": 5604,
      "interesting": 5605,
      "pull": 5606,
      "arbitr": 5607,
      "debate": 5608,
      "instinct": 5609,
      "oriented": 5610,
      "Emergence": 5611,
      "German": 5612,
      "Knowledge": 5613,
      "Aristotle": 5614,
      "Paradig": 5615,
      "ilibrium": 5616,
      "Gen": 5617,
      "avi": 5618,
      "flower": 5619,
      "ped": 5620,
      "tough": 5621,
      "tones": 5622,
      "institu": 5623,
      "remove": 5624,
      "stret": 5625,
      "road": 5626,
      "six": 5627,
      "magn": 5628,
      "preced": 5629,
      "saw": 5630,
      "fleeting": 5631,
      "reasonings": 5632,
      "travel": 5633,
      "potenti": 5634,
      "media": 5635,
      "faculties": 5636,
      "Soci": 5637,
      "imagined": 5638,
      "restoring": 5639,
      "scheme": 5640,
      "analysts": 5641,
      "Coherence": 5642,
      "transcends": 5643,
      "tracks": 5644,
      "participants": 5645,
      "proofs": 5646,
      "relevance": 5647,
      "Life": 5648,
      "clearer": 5649,
      "exercises": 5650,
      "Balancing": 5651,
      "Gener": 5652,
      "Jo": 5653,
      "Use": 5654,
      "honesty": 5655,
      "horiz": 5656,
      "mun": 5657,
      "iner": 5658,
      "inde": 5659,
      "insist": 5660,
      "remedi": 5661,
      "reinterpret": 5662,
      "enance": 5663,
      "artis": 5664,
      "config": 5665,
      "hearing": 5666,
      "cible": 5667,
      "advice": 5668,
      "options": 5669,
      "timing": 5670,
      "understands": 5671,
      "principal": 5672,
      "trace": 5673,
      "depic": 5674,
      "grows": 5675,
      "attend": 5676,
      "deepen": 5677,
      "stabilized": 5678,
      "distinguished": 5679,
      "circumstance": 5680,
      "autoclitic": 5681,
      "atoms": 5682,
      "metaphysics": 5683,
      "Interpre": 5684,
      "layering": 5685,
      "reshaping": 5686,
      "inferior": 5687,
      "composition": 5688,
      "branching": 5689,
      "crystals": 5690,
      "electrons": 5691,
      "accident": 5692,
      "thrown": 5693,
      "reciprocal": 5694,
      "pragmatic": 5695,
      "20": 5696,
      "6th": 5697,
      "Am": 5698,
      "Ali": 5699,
      "Grow": 5700,
      "La": 5701,
      "labor": 5702,
      "soften": 5703,
      "inj": 5704,
      "realized": 5705,
      "below": 5706,
      "melo": 5707,
      "resent": 5708,
      "ratio": 5709,
      "essences": 5710,
      "withdraw": 5711,
      "mapping": 5712,
      "contr": 5713,
      "connects": 5714,
      "match": 5715,
      "surance": 5716,
      "developmental": 5717,
      "operating": 5718,
      "considerations": 5719,
      "equilibrium": 5720,
      "tried": 5721,
      "universality": 5722,
      "climate": 5723,
      "kindness": 5724,
      "seemingly": 5725,
      "guides": 5726,
      "revealed": 5727,
      "examined": 5728,
      "unconsciously": 5729,
      "angles": 5730,
      "participation": 5731,
      "cratic": 5732,
      "judic": 5733,
      "scope": 5734,
      "ontological": 5735,
      "fulfilling": 5736,
      "thresholds": 5737,
      "inevit": 5738,
      "Traditional": 5739,
      "hunger": 5740,
      "grief": 5741,
      "Earth": 5742,
      "barriers": 5743,
      "conviction": 5744,
      "simplest": 5745,
      "targeted": 5746,
      "remedies": 5747,
      "Gali": 5748,
      "aving": 5749,
      "dat": 5750,
      "ians": 5751,
      "pend": 5752,
      "ues": 5753,
      "endu": 5754,
      "itate": 5755,
      "arrange": 5756,
      "dian": 5757,
      "versions": 5758,
      "citi": 5759,
      "wear": 5760,
      "quar": 5761,
      "Thought": 5762,
      "comprom": 5763,
      "telling": 5764,
      "preme": 5765,
      "preference": 5766,
      "existent": 5767,
      "observers": 5768,
      "communities": 5769,
      "realms": 5770,
      "intelligent": 5771,
      "berg": 5772,
      "trees": 5773,
      "norm": 5774,
      "teachings": 5775,
      "Comple": 5776,
      "painful": 5777,
      "anxious": 5778,
      "suscep": 5779,
      "technologies": 5780,
      "legal": 5781,
      "incorporate": 5782,
      "antecedent": 5783,
      "Higher": 5784,
      "People": 5785,
      "macro": 5786,
      "Galile": 5787,
      "iously": 5788,
      "lacking": 5789,
      "nous": 5790,
      "scul": 5791,
      "vant": 5792,
      "zens": 5793,
      "inqui": 5794,
      "incompatible": 5795,
      "stro": 5796,
      "ceases": 5797,
      "arm": 5798,
      "rob": 5799,
      "enters": 5800,
      "cold": 5801,
      "ung": 5802,
      "proved": 5803,
      "rush": 5804,
      "ticing": 5805,
      "apt": 5806,
      "complic": 5807,
      "voli": 5808,
      "happening": 5809,
      "write": 5810,
      "quiet": 5811,
      "fears": 5812,
      "healthy": 5813,
      "treats": 5814,
      "attempting": 5815,
      "induction": 5816,
      "implicit": 5817,
      "technique": 5818,
      "198": 5819,
      "violent": 5820,
      "eliminate": 5821,
      "Creation": 5822,
      "temperature": 5823,
      "parents": 5824,
      "binary": 5825,
      "thrive": 5826,
      "birth": 5827,
      "popular": 5828,
      "survey": 5829,
      "painting": 5830,
      "Growth": 5831,
      "15": 5832,
      "Ap": 5833,
      "Sto": 5834,
      "bation": 5835,
      "epo": 5836,
      "mn": 5837,
      "ners": 5838,
      "sunt": 5839,
      "uma": 5840,
      "theology": 5841,
      "performed": 5842,
      "plants": 5843,
      "camp": 5844,
      "impr": 5845,
      "idem": 5846,
      "flux": 5847,
      "myster": 5848,
      "mature": 5849,
      "arching": 5850,
      "langu": 5851,
      "originally": 5852,
      "referencing": 5853,
      "uniquely": 5854,
      "turns": 5855,
      "didn": 5856,
      "explores": 5857,
      "indicating": 5858,
      "category": 5859,
      "removing": 5860,
      "resilient": 5861,
      "participate": 5862,
      "homeop": 5863,
      "Behavioral": 5864,
      "programmed": 5865,
      "electromagnetic": 5866,
      "promises": 5867,
      "province": 5868,
      "lightenment": 5869,
      "Frequ": 5870,
      "IS": 5871,
      "Nat": 5872,
      "Pre": 5873,
      "RO": 5874,
      "Shi": 5875,
      "cross": 5876,
      "ump": 5877,
      "assurance": 5878,
      "entang": 5879,
      "versa": 5880,
      "respects": 5881,
      "suitable": 5882,
      "added": 5883,
      "interse": 5884,
      "worry": 5885,
      "relates": 5886,
      "elli": 5887,
      "predefined": 5888,
      "serious": 5889,
      "anyone": 5890,
      "overarching": 5891,
      "taste": 5892,
      "wouldn": 5893,
      "empowers": 5894,
      "leadership": 5895,
      "approval": 5896,
      "mindset": 5897,
      "appeared": 5898,
      "misery": 5899,
      "relationally": 5900,
      "dataset": 5901,
      "momentary": 5902,
      "repeti": 5903,
      "faces": 5904,
      "reduction": 5905,
      "joined": 5906,
      "disrupting": 5907,
      "explored": 5908,
      "calls": 5909,
      "resonates": 5910,
      "treatments": 5911,
      "optimal": 5912,
      "gains": 5913,
      "indicates": 5914,
      "Process": 5915,
      "significantly": 5916,
      "journ": 5917,
      "critiques": 5918,
      "discoveries": 5919,
      "centuries": 5920,
      "echoes": 5921,
      "facilitating": 5922,
      "permanence": 5923,
      "sensitive": 5924,
      "employed": 5925,
      "pleasant": 5926,
      "explicitly": 5927,
      "ION": 5928,
      "propagate": 5929,
      "fluctuations": 5930,
      "Christian": 5931,
      "epoch": 5932,
      "Gra": 5933,
      "Scal": 5934,
      "_B": 5935,
      "blame": 5936,
      "fract": 5937,
      "gave": 5938,
      "meri": 5939,
      "nur": 5940,
      "incapable": 5941,
      "receptive": 5942,
      "attr": 5943,
      "itative": 5944,
      "lebr": 5945,
      "celebr": 5946,
      "concent": 5947,
      "owed": 5948,
      "dealing": 5949,
      "unstable": 5950,
      "ghter": 5951,
      "Though": 5952,
      "isms": 5953,
      "pause": 5954,
      "etc": 5955,
      "gret": 5956,
      "identified": 5957,
      "partner": 5958,
      "illusions": 5959,
      "latency": 5960,
      "decay": 5961,
      "affair": 5962,
      "momentum": 5963,
      "involving": 5964,
      "methodo": 5965,
      "afterwards": 5966,
      "brea": 5967,
      "transient": 5968,
      "teacher": 5969,
      "interested": 5970,
      "disrupts": 5971,
      "resolving": 5972,
      "fluidity": 5973,
      "assessments": 5974,
      "customer": 5975,
      "hierarchies": 5976,
      "gravit": 5977,
      "fruit": 5978,
      "World": 5979,
      "actuality": 5980,
      "dangerous": 5981,
      "electricity": 5982,
      "market": 5983,
      "Intro": 5984,
      "walk": 5985,
      "Emotional": 5986,
      "artistic": 5987,
      "Align": 5988,
      "30": 5989,
      "Using": 5990,
      "fas": 5991,
      "izes": 5992,
      "nul": 5993,
      "insufficient": 5994,
      "remin": 5995,
      "tom": 5996,
      "ices": 5997,
      "excell": 5998,
      "unjust": 5999,
      "irrelevant": 6000,
      "contract": 6001,
      "els": 6002,
      "fractally": 6003,
      "disp": 6004,
      "channe": 6005,
      "incid": 6006,
      "audit": 6007,
      "generations": 6008,
      "controver": 6009,
      "deepening": 6010,
      "measurements": 6011,
      "countless": 6012,
      "improvements": 6013,
      "weaken": 6014,
      "falls": 6015,
      "receives": 6016,
      "strictly": 6017,
      "anticipate": 6018,
      "delayed": 6019,
      "fulfillment": 6020,
      "investigation": 6021,
      "routine": 6022,
      "gaps": 6023,
      "indifferent": 6024,
      "architectures": 6025,
      "philosophies": 6026,
      "chief": 6027,
      "young": 6028,
      "fically": 6029,
      "national": 6030,
      "vain": 6031,
      "ero": 6032,
      "cere": 6033,
      "node": 6034,
      "ades": 6035,
      "rights": 6036,
      "alien": 6037,
      "preh": 6038,
      "Internal": 6039,
      "disconnection": 6040,
      "existed": 6041,
      "responsible": 6042,
      "sharing": 6043,
      "faster": 6044,
      "reflected": 6045,
      "generative": 6046,
      "mitted": 6047,
      "invent": 6048,
      "signaling": 6049,
      "prevail": 6050,
      "grounding": 6051,
      "caregi": 6052,
      "modifies": 6053,
      "assertion": 6054,
      "predictability": 6055,
      "liberty": 6056,
      "axis": 6057,
      "interrupted": 6058,
      "inspire": 6059,
      "flicker": 6060,
      "cogit": 6061,
      "Applied": 6062,
      "Structural": 6063,
      "parameters": 6064,
      "sufficiently": 6065,
      "Galileo": 6066,
      "PT": 6067,
      "bare": 6068,
      "game": 6069,
      "hic": 6070,
      "night": 6071,
      "forget": 6072,
      "heav": 6073,
      "noble": 6074,
      "weigh": 6075,
      "plur": 6076,
      "behaviorism": 6077,
      "spective": 6078,
      "awak": 6079,
      "corrup": 6080,
      "completeness": 6081,
      "internalized": 6082,
      "grace": 6083,
      "maintenance": 6084,
      "cascade": 6085,
      "consequent": 6086,
      "learners": 6087,
      "facing": 6088,
      "breath": 6089,
      "satisfact": 6090,
      "studying": 6091,
      "release": 6092,
      "experimentation": 6093,
      "runs": 6094,
      "ordinate": 6095,
      "transformations": 6096,
      "recently": 6097,
      "honest": 6098,
      "eliminating": 6099,
      "referred": 6100,
      "investig": 6101,
      "cohesion": 6102,
      "sorrow": 6103,
      "suddenly": 6104,
      "contributions": 6105,
      "contiguity": 6106,
      "apprehension": 6107,
      "lifesty": 6108,
      "conceal": 6109,
      "arbitrarily": 6110,
      "WI": 6111,
      "elu": 6112,
      "fresh": 6113,
      "gli": 6114,
      "mim": 6115,
      "scrip": 6116,
      "inorganic": 6117,
      "realign": 6118,
      "ishable": 6119,
      "stances": 6120,
      "asi": 6121,
      "proposes": 6122,
      "admi": 6123,
      "quali": 6124,
      "pron": 6125,
      "deser": 6126,
      "imper": 6127,
      "somewhat": 6128,
      "worldview": 6129,
      "fault": 6130,
      "desirable": 6131,
      "capabilities": 6132,
      "differentiates": 6133,
      "portion": 6134,
      "establishes": 6135,
      "facets": 6136,
      "circle": 6137,
      "transcendence": 6138,
      "started": 6139,
      "Environ": 6140,
      "expanded": 6141,
      "Although": 6142,
      "Examples": 6143,
      "meeting": 6144,
      "judgements": 6145,
      "aspir": 6146,
      "Whole": 6147,
      "Creativity": 6148,
      "appreciation": 6149,
      "systematically": 6150,
      "mastery": 6151,
      "drop": 6152,
      "rapidly": 6153,
      "recommend": 6154,
      "skepticism": 6155,
      "constitutes": 6156,
      "nomenon": 6157,
      "efficacy": 6158,
      "Interpretation": 6159,
      "Ber": 6160,
      "CO": 6161,
      "Dy": 6162,
      "Med": 6163,
      "gif": 6164,
      "mil": 6165,
      "mort": 6166,
      "wick": 6167,
      "inconsistent": 6168,
      "theless": 6169,
      "concur": 6170,
      "unci": 6171,
      "uncture": 6172,
      "undivided": 6173,
      "nodes": 6174,
      "mood": 6175,
      "polic": 6176,
      "interactive": 6177,
      "endur": 6178,
      "mine": 6179,
      "pairing": 6180,
      "dissolution": 6181,
      "sho": 6182,
      "sessions": 6183,
      "clusion": 6184,
      "misunderstanding": 6185,
      "appearances": 6186,
      "trials": 6187,
      "improved": 6188,
      "freely": 6189,
      "manifesting": 6190,
      "asserting": 6191,
      "discussing": 6192,
      "impossibility": 6193,
      "Most": 6194,
      "synthetic": 6195,
      "supportive": 6196,
      "excited": 6197,
      "branches": 6198,
      "attained": 6199,
      "vulgar": 6200,
      "topics": 6201,
      "IOA": 6202,
      "cosmological": 6203,
      "spontaneous": 6204,
      "Luci": 6205,
      "Again": 6206,
      "iis": 6207,
      "ights": 6208,
      "len": 6209,
      "ingression": 6210,
      "depression": 6211,
      "raise": 6212,
      "solu": 6213,
      "pros": 6214,
      "seless": 6215,
      "elle": 6216,
      "disput": 6217,
      "session": 6218,
      "substi": 6219,
      "completion": 6220,
      "father": 6221,
      "meaningfully": 6222,
      "transformed": 6223,
      "upuncture": 6224,
      "solves": 6225,
      "linking": 6226,
      "collea": 6227,
      "problematic": 6228,
      "attended": 6229,
      "fortun": 6230,
      "substan": 6231,
      "bestow": 6232,
      "affecting": 6233,
      "removal": 6234,
      "absent": 6235,
      "synchron": 6236,
      "progressively": 6237,
      "burden": 6238,
      "solidity": 6239,
      "harmful": 6240,
      "divergence": 6241,
      "Leib": 6242,
      "assistance": 6243,
      "beneath": 6244,
      "destruction": 6245,
      "tamen": 6246,
      "physicists": 6247,
      "scarce": 6248,
      "incarnation": 6249,
      "books": 6250,
      "inherited": 6251,
      "Challenges": 6252,
      "Paradigm": 6253,
      "citizens": 6254,
      "sculp": 6255,
      "languages": 6256,
      "Frequency": 6257,
      "endurance": 6258,
      "5th": 6259,
      "7th": 6260,
      "ES": 6261,
      "agrees": 6262,
      "ror": 6263,
      "rant": 6264,
      "utility": 6265,
      "renew": 6266,
      "regret": 6267,
      "anatom": 6268,
      "enim": 6269,
      "acu": 6270,
      "decei": 6271,
      "abund": 6272,
      "lobe": 6273,
      "ured": 6274,
      "shame": 6275,
      "sensu": 6276,
      "overcoming": 6277,
      "complementary": 6278,
      "tax": 6279,
      "stepping": 6280,
      "bigger": 6281,
      "thinks": 6282,
      "steady": 6283,
      "practitioners": 6284,
      "evidently": 6285,
      "giveness": 6286,
      "directions": 6287,
      "Perhaps": 6288,
      "practicing": 6289,
      "wholeness": 6290,
      "hypnosis": 6291,
      "equivalent": 6292,
      "Embracing": 6293,
      "Autocli": 6294,
      "horizon": 6295,
      "Lucifer": 6296,
      "Dim": 6297,
      "Sup": 6298,
      "moun": 6299,
      "oli": 6300,
      "pin": 6301,
      "tled": 6302,
      "turing": 6303,
      "repair": 6304,
      "thening": 6305,
      "atten": 6306,
      "itch": 6307,
      "behave": 6308,
      "terri": 6309,
      "liance": 6310,
      "rarely": 6311,
      "endar": 6312,
      "distribu": 6313,
      "corresponds": 6314,
      "agents": 6315,
      "lessons": 6316,
      "invisi": 6317,
      "objection": 6318,
      "objectives": 6319,
      "Exist": 6320,
      "animate": 6321,
      "constructing": 6322,
      "transcending": 6323,
      "positively": 6324,
      "accountability": 6325,
      "Simulation": 6326,
      "burn": 6327,
      "scores": 6328,
      "customers": 6329,
      "friendship": 6330,
      "suppress": 6331,
      "schools": 6332,
      "Experience": 6333,
      "hypotheses": 6334,
      "disorders": 6335,
      "Matter": 6336,
      "axiom": 6337,
      "injur": 6338,
      "heavy": 6339,
      "14": 6340,
      "Bu": 6341,
      "Ill": 6342,
      "Key": 6343,
      "Py": 6344,
      "pub": 6345,
      "sought": 6346,
      "za": 6347,
      "ino": 6348,
      "inhabit": 6349,
      "enem": 6350,
      "atorial": 6351,
      "orous": 6352,
      "ascend": 6353,
      "exposed": 6354,
      "lik": 6355,
      "unpredictable": 6356,
      "haven": 6357,
      "motions": 6358,
      "mad": 6359,
      "rid": 6360,
      "river": 6361,
      "Those": 6362,
      "plasticity": 6363,
      "guard": 6364,
      "whenever": 6365,
      "timate": 6366,
      "responsive": 6367,
      "please": 6368,
      "traditions": 6369,
      "believed": 6370,
      "physically": 6371,
      "charged": 6372,
      "harder": 6373,
      "empirically": 6374,
      "materials": 6375,
      "healthcare": 6376,
      "satisfied": 6377,
      "metaphors": 6378,
      "demonstration": 6379,
      "musical": 6380,
      "optimizing": 6381,
      "achievement": 6382,
      "bringing": 6383,
      "Interven": 6384,
      "poets": 6385,
      "compares": 6386,
      "matism": 6387,
      "vocal": 6388,
      "Maybe": 6389,
      "gravitational": 6390,
      "auditory": 6391,
      "wicked": 6392,
      "\")": 6393,
      "Cal": 6394,
      "DE": 6395,
      "Kanti": 6396,
      "Love": 6397,
      "Mach": 6398,
      "NC": 6399,
      "Val": 6400,
      "apo": 6401,
      "cro": 6402,
      "ires": 6403,
      "nine": 6404,
      "reframes": 6405,
      "enberg": 6406,
      "alters": 6407,
      "station": 6408,
      "lem": 6409,
      "legi": 6410,
      "secure": 6411,
      "acupuncture": 6412,
      "began": 6413,
      "editing": 6414,
      "consent": 6415,
      "door": 6416,
      "neigh": 6417,
      "qual": 6418,
      "competing": 6419,
      "audi": 6420,
      "agg": 6421,
      "equations": 6422,
      "External": 6423,
      "niz": 6424,
      "join": 6425,
      "rests": 6426,
      "cultures": 6427,
      "marked": 6428,
      "habitual": 6429,
      "fourth": 6430,
      "encounters": 6431,
      "cumulative": 6432,
      "mixture": 6433,
      "presupposes": 6434,
      "Scienti": 6435,
      "European": 6436,
      "English": 6437,
      "Adaptive": 6438,
      "contribution": 6439,
      "puzz": 6440,
      "selecting": 6441,
      "psychic": 6442,
      "acquainted": 6443,
      "Patterns": 6444,
      "percipient": 6445,
      "distractions": 6446,
      "repetitive": 6447,
      "Introdu": 6448,
      "Ba": 6449,
      "Cha": 6450,
      "dated": 6451,
      "ejus": 6452,
      "furn": 6453,
      "sof": 6454,
      "tigue": 6455,
      "altogether": 6456,
      "arc": 6457,
      "rotation": 6458,
      "noise": 6459,
      "emit": 6460,
      "photo": 6461,
      "pressures": 6462,
      "compar": 6463,
      "endpoint": 6464,
      "subtly": 6465,
      "traged": 6466,
      "approbation": 6467,
      "setbacks": 6468,
      "autem": 6469,
      "days": 6470,
      "quibus": 6471,
      "collapses": 6472,
      "imposing": 6473,
      "sentences": 6474,
      "Living": 6475,
      "rejects": 6476,
      "vague": 6477,
      "retains": 6478,
      "intentionality": 6479,
      "inflam": 6480,
      "pieces": 6481,
      "enjoyment": 6482,
      "revolutions": 6483,
      "hypothetical": 6484,
      "clinical": 6485,
      "Function": 6486,
      "plurality": 6487,
      "satisfactory": 6488,
      "bles": 6489,
      "spread": 6490,
      "tus": 6491,
      "review": 6492,
      "annot": 6493,
      "atur": 6494,
      "sevent": 6495,
      "vector": 6496,
      "lian": 6497,
      "die": 6498,
      "unte": 6499,
      "unlike": 6500,
      "race": 6501,
      "appar": 6502,
      "antly": 6503,
      "display": 6504,
      "disclosed": 6505,
      "discard": 6506,
      "timately": 6507,
      "corpus": 6508,
      "auth": 6509,
      "matching": 6510,
      "continuum": 6511,
      "pointing": 6512,
      "captures": 6513,
      "laid": 6514,
      "speakers": 6515,
      "stops": 6516,
      "cumulation": 6517,
      "strengthening": 6518,
      "modified": 6519,
      "besides": 6520,
      "angers": 6521,
      "removes": 6522,
      "objectively": 6523,
      "receiving": 6524,
      "wait": 6525,
      "exhibits": 6526,
      "warm": 6527,
      "implicate": 6528,
      "promotes": 6529,
      "willingness": 6530,
      "symbo": 6531,
      "possessed": 6532,
      "facilitates": 6533,
      "detecting": 6534,
      "typical": 6535,
      "totally": 6536,
      "indirectly": 6537,
      "Disbelief": 6538,
      "perpetual": 6539,
      "Christianity": 6540,
      "accumulate": 6541,
      "guardians": 6542,
      "front": 6543,
      "propensity": 6544,
      "Moreover": 6545,
      "regions": 6546,
      "exhaus": 6547,
      "Philosophy": 6548,
      "split": 6549,
      "datab": 6550,
      "robust": 6551,
      "lifestyle": 6552,
      "Leibniz": 6553,
      "Man": 6554,
      "Sm": 6555,
      "Sage": 6556,
      "aign": 6557,
      "etr": 6558,
      "ga": 6559,
      "house": 6560,
      "”—": 6561,
      "informed": 6562,
      "reverse": 6563,
      "accumulation": 6564,
      "ascribe": 6565,
      "cons": 6566,
      "metr": 6567,
      "died": 6568,
      "diet": 6569,
      "fee": 6570,
      "aded": 6571,
      "contras": 6572,
      "placing": 6573,
      "pressed": 6574,
      "distances": 6575,
      "aggre": 6576,
      "appeal": 6577,
      "careful": 6578,
      "validate": 6579,
      "successfully": 6580,
      "therapies": 6581,
      "discuss": 6582,
      "breakdown": 6583,
      "assessing": 6584,
      "Relations": 6585,
      "entertain": 6586,
      "conveys": 6587,
      "Recognize": 6588,
      "penetr": 6589,
      "nearly": 6590,
      "esteemed": 6591,
      "protect": 6592,
      "widely": 6593,
      "retrieval": 6594,
      "Furthermore": 6595,
      "sacrifice": 6596,
      "oxy": 6597,
      "campaign": 6598,
      "mimic": 6599,
      "Dynam": 6600,
      "Autoclitics": 6601,
      "contrastive": 6602,
      "\"—": 6603,
      "NO": 6604,
      "RI": 6605,
      "Ul": 6606,
      "nate": 6607,
      "arran": 6608,
      "bered": 6609,
      "dient": 6610,
      "rare": 6611,
      "noticing": 6612,
      "cians": 6613,
      "embr": 6614,
      "interdependent": 6615,
      "antin": 6616,
      "Intra": 6617,
      "inef": 6618,
      "cord": 6619,
      "solved": 6620,
      "spite": 6621,
      "miss": 6622,
      "colors": 6623,
      "colours": 6624,
      "capes": 6625,
      "putting": 6626,
      "stored": 6627,
      "supposition": 6628,
      "distinguishable": 6629,
      "miti": 6630,
      "rank": 6631,
      "older": 6632,
      "advancements": 6633,
      "collapsing": 6634,
      "overwhelm": 6635,
      "iteratively": 6636,
      "operationally": 6637,
      "honor": 6638,
      "Neg": 6639,
      "efficiently": 6640,
      "manifold": 6641,
      "slowly": 6642,
      "Roman": 6643,
      "restricted": 6644,
      "surroundings": 6645,
      "infinity": 6646,
      "vulnerability": 6647,
      "accommodate": 6648,
      "congruence": 6649,
      "Kantian": 6650,
      "sevente": 6651,
      "Intraverbal": 6652,
      "Brad": 6653,
      "Ca": 6654,
      "GPT": 6655,
      "ny": 6656,
      "sli": 6657,
      "uality": 6658,
      "returning": 6659,
      "tile": 6660,
      "tox": 6661,
      "leap": 6662,
      "cease": 6663,
      "exception": 6664,
      "performing": 6665,
      "hab": 6666,
      "feed": 6667,
      "proces": 6668,
      "Which": 6669,
      "canvas": 6670,
      "outdated": 6671,
      "hips": 6672,
      "impacts": 6673,
      "individualized": 6674,
      "ineffective": 6675,
      "subconscious": 6676,
      "ishment": 6677,
      "reflexi": 6678,
      "directing": 6679,
      "constancy": 6680,
      "affective": 6681,
      "deepens": 6682,
      "souls": 6683,
      "quia": 6684,
      "constraint": 6685,
      "sustains": 6686,
      "alleg": 6687,
      "detects": 6688,
      "manageable": 6689,
      "regulating": 6690,
      "cracy": 6691,
      "Systemic": 6692,
      "formulae": 6693,
      "accomplish": 6694,
      "accidental": 6695,
      "dictate": 6696,
      "Transcend": 6697,
      "confront": 6698,
      "criteria": 6699,
      "catalysts": 6700,
      "tuning": 6701,
      "spark": 6702,
      "Physical": 6703,
      "items": 6704,
      "execut": 6705,
      "susceptible": 6706,
      "aspirations": 6707,
      "oxygen": 6708,
      "Ultimately": 6709,
      "seventeenth": 6710,
      "4a": 6711,
      "Cl": 6712,
      "Loc": 6713,
      "MWI": 6714,
      "dru": 6715,
      "fits": 6716,
      "gone": 6717,
      "gates": 6718,
      "iti": 6719,
      "phe": 6720,
      "tibility": 6721,
      "ingre": 6722,
      "declar": 6723,
      "exper": 6724,
      "vertical": 6725,
      "habe": 6726,
      "ries": 6727,
      "emin": 6728,
      "Than": 6729,
      "curious": 6730,
      "company": 6731,
      "tyran": 6732,
      "imperfect": 6733,
      "worked": 6734,
      "pport": 6735,
      "failed": 6736,
      "necessit": 6737,
      "diff": 6738,
      "latent": 6739,
      "illa": 6740,
      "Conne": 6741,
      "Conclusion": 6742,
      "readers": 6743,
      "scalability": 6744,
      "datasets": 6745,
      "assent": 6746,
      "links": 6747,
      "country": 6748,
      "situated": 6749,
      "situational": 6750,
      "speaks": 6751,
      "facility": 6752,
      "antithesis": 6753,
      "circular": 6754,
      "designs": 6755,
      "ordination": 6756,
      "falli": 6757,
      "locked": 6758,
      "simultaneous": 6759,
      "progressive": 6760,
      "induced": 6761,
      "holes": 6762,
      "novelty": 6763,
      "adequacy": 6764,
      "assigned": 6765,
      "Quantum": 6766,
      "monitor": 6767,
      "enriches": 6768,
      "updates": 6769,
      "correspondence": 6770,
      "Intelli": 6771,
      "dialectical": 6772,
      "secret": 6773,
      "projecti": 6774,
      "Complex": 6775,
      ");": 6776,
      "Avoid": 6777,
      "Cor": 6778,
      "Gu": 6779,
      "Ste": 6780,
      "gam": 6781,
      "sanity": 6782,
      "vanity": 6783,
      "reversal": 6784,
      "stated": 6785,
      "stating": 6786,
      "stressed": 6787,
      "cet": 6788,
      "coping": 6789,
      "moved": 6790,
      "propri": 6791,
      "proposed": 6792,
      "cepts": 6793,
      "compet": 6794,
      "opens": 6795,
      "chances": 6796,
      "transl": 6797,
      "spin": 6798,
      "determinate": 6799,
      "avoided": 6800,
      "failures": 6801,
      "grounds": 6802,
      "Unity": 6803,
      "validated": 6804,
      "disruptive": 6805,
      "disrupted": 6806,
      "resonant": 6807,
      "analytical": 6808,
      "Child": 6809,
      "materialism": 6810,
      "materialistic": 6811,
      "persists": 6812,
      "hero": 6813,
      "modul": 6814,
      "relatively": 6815,
      "passively": 6816,
      "carrying": 6817,
      "converge": 6818,
      "illustrating": 6819,
      "obtained": 6820,
      "pushing": 6821,
      "orientation": 6822,
      "decrease": 6823,
      "slightly": 6824,
      "inclination": 6825,
      "deliver": 6826,
      "flawed": 6827,
      "obedience": 6828,
      "Ethical": 6829,
      "trouble": 6830,
      "episod": 6831,
      "arrangement": 6832,
      "attraction": 6833,
      "Bradley": 6834,
      "24": 6835,
      "Bre": 6836,
      "Col": 6837,
      "Fig": 6838,
      "Ho": 6839,
      "Mands": 6840,
      "fif": 6841,
      "flat": 6842,
      "hur": 6843,
      "lity": 6844,
      "noun": 6845,
      "inanimate": 6846,
      "restructure": 6847,
      "ison": 6848,
      "toler": 6849,
      "seman": 6850,
      "chec": 6851,
      "urations": 6852,
      "usage": 6853,
      "loving": 6854,
      "interfe": 6855,
      "endowed": 6856,
      "descend": 6857,
      "knowable": 6858,
      "green": 6859,
      "yours": 6860,
      "cribed": 6861,
      "fatigue": 6862,
      "agent": 6863,
      "valued": 6864,
      "commands": 6865,
      "dama": 6866,
      "elev": 6867,
      "trivi": 6868,
      "centre": 6869,
      "relief": 6870,
      "gentle": 6871,
      "purposeful": 6872,
      "introduction": 6873,
      "neglect": 6874,
      "suggested": 6875,
      "unifying": 6876,
      "evaluates": 6877,
      "planet": 6878,
      "instrument": 6879,
      "possessions": 6880,
      "innovative": 6881,
      "chooses": 6882,
      "parallels": 6883,
      "chemist": 6884,
      "anticipation": 6885,
      "spirits": 6886,
      "imitate": 6887,
      "witness": 6888,
      "Newtonian": 6889,
      "embodiment": 6890,
      "destructive": 6891,
      "afford": 6892,
      "smoothly": 6893,
      "extensive": 6894,
      "discern": 6895,
      "finger": 6896,
      "Latin": 6897,
      "neutrality": 6898,
      "John": 6899,
      "pronoun": 6900,
      "Suppose": 6901,
      "antinom": 6902,
      "Action": 6903,
      "Eva": 6904,
      "afra": 6905,
      "gency": 6906,
      "gather": 6907,
      "hu": 6908,
      "kid": 6909,
      "oce": 6910,
      "éri": 6911,
      "informs": 6912,
      "endi": 6913,
      "took": 6914,
      "topic": 6915,
      "bell": 6916,
      "delu": 6917,
      "devices": 6918,
      "expose": 6919,
      "covered": 6920,
      "liquid": 6921,
      "wider": 6922,
      "unite": 6923,
      "unchanging": 6924,
      "vero": 6925,
      "respe": 6926,
      "suit": 6927,
      "adherence": 6928,
      "poster": 6929,
      "kept": 6930,
      "phone": 6931,
      "rela": 6932,
      "alizations": 6933,
      "fiction": 6934,
      "Indeed": 6935,
      "recurrence": 6936,
      "standpoint": 6937,
      "fight": 6938,
      "overlap": 6939,
      "definitive": 6940,
      "adapted": 6941,
      "observes": 6942,
      "separations": 6943,
      "handling": 6944,
      "gery": 6945,
      "showed": 6946,
      "lectures": 6947,
      "supple": 6948,
      "drawbacks": 6949,
      "probable": 6950,
      "probabilities": 6951,
      "priorities": 6952,
      "therapists": 6953,
      "mathemati": 6954,
      "Everything": 6955,
      "pictures": 6956,
      "morals": 6957,
      "temporarily": 6958,
      "rejecting": 6959,
      "invest": 6960,
      "Suf": 6961,
      "impulses": 6962,
      "sales": 6963,
      "scenario": 6964,
      "masses": 6965,
      "contiguous": 6966,
      "guarante": 6967,
      "Biological": 6968,
      "Metaph": 6969,
      "blood": 6970,
      "storage": 6971,
      "voluntary": 6972,
      "withdrawal": 6973,
      "invisible": 6974,
      "apparatus": 6975,
      "Intelligence": 6976,
      "afraid": 6977,
      "Effe": 6978,
      "Found": 6979,
      "OR": 6980,
      "cand": 6981,
      "cou": 6982,
      "eter": 6983,
      "hall": 6984,
      "vacu": 6985,
      "”)": 6986,
      "tise": 6987,
      "tight": 6988,
      "oured": 6989,
      "severe": 6990,
      "confound": 6991,
      "exceed": 6992,
      "vert": 6993,
      "rays": 6994,
      "propositions": 6995,
      "advis": 6996,
      "iron": 6997,
      "selfish": 6998,
      "phases": 6999,
      "syl": 7000,
      "creators": 7001,
      "discre": 7002,
      "distract": 7003,
      "posse": 7004,
      "ownership": 7005,
      "humanism": 7006,
      "foregoing": 7007,
      "trapped": 7008,
      "trauma": 7009,
      "Healing": 7010,
      "logically": 7011,
      "upward": 7012,
      "Repe": 7013,
      "volution": 7014,
      "clusters": 7015,
      "productivity": 7016,
      "foundations": 7017,
      "indul": 7018,
      "arguing": 7019,
      "separately": 7020,
      "occurred": 7021,
      "goodness": 7022,
      "reducible": 7023,
      "histories": 7024,
      "tends": 7025,
      "strike": 7026,
      "beside": 7027,
      "solidif": 7028,
      "Override": 7029,
      "volunte": 7030,
      "rejected": 7031,
      "minimum": 7032,
      "delays": 7033,
      "Commun": 7034,
      "regularly": 7035,
      "incorporating": 7036,
      "mixed": 7037,
      "occupy": 7038,
      "Mathe": 7039,
      "stick": 7040,
      "confirmation": 7041,
      "plicity": 7042,
      "Natural": 7043,
      "substantial": 7044,
      "trivial": 7045,
      "Eu": 7046,
      "Home": 7047,
      "Mor": 7048,
      "Rese": 7049,
      "ell": 7050,
      "eating": 7051,
      "milli": 7052,
      "sw": 7053,
      "zable": 7054,
      "innate": 7055,
      "annihil": 7056,
      "atum": 7057,
      "accusto": 7058,
      "sitive": 7059,
      "forgiveness": 7060,
      "dice": 7061,
      "hell": 7062,
      "susp": 7063,
      "modo": 7064,
      "ulum": 7065,
      "duties": 7066,
      "rences": 7067,
      "Instances": 7068,
      "ideo": 7069,
      "fiers": 7070,
      "arith": 7071,
      "agger": 7072,
      "trait": 7073,
      "span": 7074,
      "potest": 7075,
      "cycl": 7076,
      "riction": 7077,
      "wanted": 7078,
      "metaphorical": 7079,
      "cruel": 7080,
      "correcting": 7081,
      "riches": 7082,
      "grammatical": 7083,
      "doctrines": 7084,
      "obliged": 7085,
      "tells": 7086,
      "Loop": 7087,
      "diminishing": 7088,
      "Level": 7089,
      "landscapes": 7090,
      "springs": 7091,
      "egoism": 7092,
      "darkness": 7093,
      "absurdity": 7094,
      "exhaust": 7095,
      "competition": 7096,
      "String": 7097,
      "accounts": 7098,
      "Archety": 7099,
      "window": 7100,
      "tragedy": 7101,
      "Oscill": 7102,
      "Power": 7103,
      "Space": 7104,
      "Vol": 7105,
      "cation": 7106,
      "friction": 7107,
      "rhe": 7108,
      "squ": 7109,
      "tent": 7110,
      "uous": 7111,
      "iny": 7112,
      "consolid": 7113,
      "exchanges": 7114,
      "cooperation": 7115,
      "heavi": 7116,
      "proto": 7117,
      "quidem": 7118,
      "interwoven": 7119,
      "hither": 7120,
      "creator": 7121,
      "disclo": 7122,
      "disagreeable": 7123,
      "dissolves": 7124,
      "underlies": 7125,
      "print": 7126,
      "shoc": 7127,
      "personalized": 7128,
      "spheres": 7129,
      "Condition": 7130,
      "differential": 7131,
      "marri": 7132,
      "histori": 7133,
      "raining": 7134,
      "governance": 7135,
      "benevol": 7136,
      "flowing": 7137,
      "grammar": 7138,
      "idealism": 7139,
      "acknowledged": 7140,
      "197": 7141,
      "nuances": 7142,
      "selected": 7143,
      "paradoxes": 7144,
      "addressed": 7145,
      "bridges": 7146,
      "symmetrical": 7147,
      "scopic": 7148,
      "superiority": 7149,
      "phrasing": 7150,
      "article": 7151,
      "recalibrate": 7152,
      "styles": 7153,
      "extraordinary": 7154,
      "dreams": 7155,
      "Adaptation": 7156,
      "gotten": 7157,
      "Universe": 7158,
      "dialectic": 7159,
      "distorted": 7160,
      "exemplifies": 7161,
      "thoroughly": 7162,
      "prepared": 7163,
      "nutrition": 7164,
      "encompasses": 7165,
      "distributed": 7166,
      "dismis": 7167,
      "inevitably": 7168,
      "unciation": 7169,
      "colleagues": 7170,
      "abundance": 7171,
      "processed": 7172,
      "syllog": 7173,
      "40": 7174,
      "Duration": 7175,
      "FI": 7176,
      "Great": 7177,
      "Stri": 7178,
      "Two": 7179,
      "ahead": 7180,
      "centi": 7181,
      "sam": 7182,
      "sali": 7183,
      "wound": 7184,
      "}.": 7185,
      "ænomenon": 7186,
      "reput": 7187,
      "attitude": 7188,
      "itur": 7189,
      "lion": 7190,
      "veri": 7191,
      "weights": 7192,
      "plate": 7193,
      "phænomenon": 7194,
      "paired": 7195,
      "dissolving": 7196,
      "natures": 7197,
      "descent": 7198,
      "immen": 7199,
      "tail": 7200,
      "calendar": 7201,
      "lesson": 7202,
      "appeti": 7203,
      "multidimensional": 7204,
      "multiplicity": 7205,
      "Before": 7206,
      "liness": 7207,
      "goods": 7208,
      "denying": 7209,
      "contradicts": 7210,
      "merge": 7211,
      "strive": 7212,
      "draws": 7213,
      "Accept": 7214,
      "gained": 7215,
      "acceptable": 7216,
      "blur": 7217,
      "motivating": 7218,
      "onomy": 7219,
      "industri": 7220,
      "alongside": 7221,
      "echoics": 7222,
      "descriptive": 7223,
      "attributed": 7224,
      "replacing": 7225,
      "excluded": 7226,
      "ambiguous": 7227,
      "diminishes": 7228,
      "maxims": 7229,
      "inspired": 7230,
      "activation": 7231,
      "threads": 7232,
      "affords": 7233,
      "acquaint": 7234,
      "diagnostic": 7235,
      "Personal": 7236,
      "Individuals": 7237,
      "institutions": 7238,
      "melody": 7239,
      "vantage": 7240,
      "anatomy": 7241,
      "Negative": 7242,
      "ocean": 7243,
      "Research": 7244,
      "accustomed": 7245,
      "5a": 7246,
      "AS": 7247,
      "CB": 7248,
      "Cult": 7249,
      "Evolution": 7250,
      "Men": 7251,
      "TM": 7252,
      "Yeah": 7253,
      "crow": 7254,
      "calibr": 7255,
      "dans": 7256,
      "ets": 7257,
      "fting": 7258,
      "hour": 7259,
      "jam": 7260,
      "pity": 7261,
      "ym": 7262,
      "zo": 7263,
      "theme": 7264,
      "theistic": 7265,
      "tia": 7266,
      "tious": 7267,
      "ale": 7268,
      "conjoined": 7269,
      "delight": 7270,
      "hemis": 7271,
      "acted": 7272,
      "weaving": 7273,
      "poem": 7274,
      "rench": 7275,
      "rendered": 7276,
      "stry": 7277,
      "shor": 7278,
      "mena": 7279,
      "lesser": 7280,
      "Reframing": 7281,
      "differing": 7282,
      "specifically": 7283,
      "opening": 7284,
      "attending": 7285,
      "hyper": 7286,
      "famous": 7287,
      "Deo": 7288,
      "pains": 7289,
      "Chin": 7290,
      "fuller": 7291,
      "gaining": 7292,
      "mutually": 7293,
      "planes": 7294,
      "achievements": 7295,
      "quantitative": 7296,
      "discovering": 7297,
      "rhythmic": 7298,
      "exciting": 7299,
      "exhibited": 7300,
      "jump": 7301,
      "grasped": 7302,
      "update": 7303,
      "middle": 7304,
      "decline": 7305,
      "surrounding": 7306,
      "replicate": 7307,
      "ignore": 7308,
      "record": 7309,
      "triggering": 7310,
      "combinatorial": 7311,
      "Planck": 7312,
      "ignorance": 7313,
      "configurations": 7314,
      "_B_": 7315,
      "breathing": 7316,
      "neighb": 7317,
      "vacuum": 7318,
      "Hist": 7319,
      "Hel": 7320,
      "Lay": 7321,
      "Long": 7322,
      "Teach": 7323,
      "hate": 7324,
      "hop": 7325,
      "swe": 7326,
      "scep": 7327,
      "sla": 7328,
      "tum": 7329,
      "ue": 7330,
      "thy": 7331,
      "inadequate": 7332,
      "rehear": 7333,
      "ano": 7334,
      "ales": 7335,
      "atque": 7336,
      "ordered": 7337,
      "lets": 7338,
      "deter": 7339,
      "suic": 7340,
      "fellow": 7341,
      "admir": 7342,
      "logi": 7343,
      "poet": 7344,
      "polar": 7345,
      "interface": 7346,
      "oppose": 7347,
      "fictions": 7348,
      "preju": 7349,
      "servation": 7350,
      "sensibility": 7351,
      "inequality": 7352,
      "akes": 7353,
      "homo": 7354,
      "ships": 7355,
      "Hell": 7356,
      "specialized": 7357,
      "functionally": 7358,
      "sequential": 7359,
      "miser": 7360,
      "occurrences": 7361,
      "adjusted": 7362,
      "attack": 7363,
      "matically": 7364,
      "thinkers": 7365,
      "statis": 7366,
      "store": 7367,
      "perfections": 7368,
      "ceptual": 7369,
      "Attention": 7370,
      "concludes": 7371,
      "pivo": 7372,
      "guidelines": 7373,
      "classroom": 7374,
      "indicators": 7375,
      "weakens": 7376,
      "breakthrough": 7377,
      "divide": 7378,
      "alternatives": 7379,
      "conducted": 7380,
      "vicious": 7381,
      "autonomously": 7382,
      "prioritizing": 7383,
      "contempt": 7384,
      "remembered": 7385,
      "crast": 7386,
      "repeats": 7387,
      "possesses": 7388,
      "refuse": 7389,
      "Humans": 7390,
      "geometrical": 7391,
      "Positive": 7392,
      "Role": 7393,
      "uniformity": 7394,
      "AND": 7395,
      "sexual": 7396,
      "utterly": 7397,
      "Differentiation": 7398,
      "seamlessly": 7399,
      "Gender": 7400,
      "homeopathy": 7401,
      "dispute": 7402,
      "glimp": 7403,
      "inflammation": 7404,
      "Small": 7405,
      "embraces": 7406,
      "Children": 7407,
      "hitherto": 7408,
      "reputation": 7409,
      "\").": 7410,
      "Er": 7411,
      "Fre": 7412,
      "Foc": 7413,
      "Glau": 7414,
      "Pha": 7415,
      "bling": 7416,
      "ctiv": 7417,
      "dwell": 7418,
      "hours": 7419,
      "mul": 7420,
      "mys": 7421,
      "pment": 7422,
      "pulation": 7423,
      "wall": 7424,
      "yeah": 7425,
      "inity": 7426,
      "innumer": 7427,
      "remed": 7428,
      "revol": 7429,
      "tification": 7430,
      "ensions": 7431,
      "entered": 7432,
      "excep": 7433,
      "lizes": 7434,
      "unfamiliar": 7435,
      "reser": 7436,
      "raised": 7437,
      "proves": 7438,
      "prolong": 7439,
      "procrast": 7440,
      "nearer": 7441,
      "quas": 7442,
      "pover": 7443,
      "plat": 7444,
      "obviously": 7445,
      "pret": 7446,
      "Inten": 7447,
      "disappear": 7448,
      "underscores": 7449,
      "fragments": 7450,
      "gry": 7451,
      "faint": 7452,
      "translation": 7453,
      "dependency": 7454,
      "greatness": 7455,
      "confess": 7456,
      "nevertheless": 7457,
      "wanting": 7458,
      "circu": 7459,
      "encouraged": 7460,
      "transcendent": 7461,
      "oscillations": 7462,
      "doubted": 7463,
      "markers": 7464,
      "quantities": 7465,
      "families": 7466,
      "arrived": 7467,
      "wishes": 7468,
      "exclusion": 7469,
      "illnesses": 7470,
      "affirmations": 7471,
      "sacred": 7472,
      "catalyst": 7473,
      "deduction": 7474,
      "utilize": 7475,
      "destabilizing": 7476,
      "omnia": 7477,
      "Response": 7478,
      "Secondary": 7479,
      "bonds": 7480,
      "fashi": 7481,
      "caregiver": 7482,
      "published": 7483,
      "Relationships": 7484,
      "Intraverbals": 7485,
      "semantic": 7486,
      "acquaintance": 7487,
      ".’": 7488,
      "Kir": 7489,
      "NT": 7490,
      "Na": 7491,
      "Pred": 7492,
      "Vo": 7493,
      "],": 7494,
      "athetic": 7495,
      "cun": 7496,
      "fat": 7497,
      "flight": 7498,
      "knew": 7499,
      "milit": 7500,
      "nic": 7501,
      "ré": 7502,
      "spot": 7503,
      "tune": 7504,
      "revel": 7505,
      "reincarnation": 7506,
      "alous": 7507,
      "sea": 7508,
      "acle": 7509,
      "confine": 7510,
      "whe": 7511,
      "default": 7512,
      "lization": 7513,
      "ressing": 7514,
      "nos": 7515,
      "ults": 7516,
      "worse": 7517,
      "Infinite": 7518,
      "imperfection": 7519,
      "redund": 7520,
      "emplo": 7521,
      "hole": 7522,
      "meaningless": 7523,
      "surrender": 7524,
      "gratitude": 7525,
      "nergy": 7526,
      "analys": 7527,
      "remained": 7528,
      "sequently": 7529,
      "Well": 7530,
      "mechanistic": 7531,
      "denies": 7532,
      "center": 7533,
      "visu": 7534,
      "aneously": 7535,
      "virtual": 7536,
      "calling": 7537,
      "striking": 7538,
      "scr": 7539,
      "fluidly": 7540,
      "blending": 7541,
      "alteration": 7542,
      "fitting": 7543,
      "prioritizes": 7544,
      "contempl": 7545,
      "contempor": 7546,
      "retaining": 7547,
      "ambition": 7548,
      "resource": 7549,
      "economy": 7550,
      "formula": 7551,
      "fairness": 7552,
      "accompany": 7553,
      "preferred": 7554,
      "attached": 7555,
      "democratic": 7556,
      "boundedness": 7557,
      "Vibr": 7558,
      "magnitude": 7559,
      "Environmental": 7560,
      "terrible": 7561,
      "distribution": 7562,
      "Existence": 7563,
      "Buil": 7564,
      "nineteenth": 7565,
      "annotation": 7566,
      "metrics": 7567,
      "Communication": 7568,
      "Oscillation": 7569,
      "sameness": 7570,
      "Acceptance": 7571,
      "Glaucon": 7572,
      "remedy": 7573,
      "poverty": 7574,
      "military": 7575,
      "Cf": 7576,
      "French": 7577,
      "Hy": 7578,
      "Mis": 7579,
      "Rad": 7580,
      "TO": 7581,
      "Tacts": 7582,
      "ament": 7583,
      "lled": 7584,
      "menti": 7585,
      "nou": 7586,
      "oting": 7587,
      "tro": 7588,
      "”),": 7589,
      "reconnect": 7590,
      "seu": 7591,
      "devo": 7592,
      "urch": 7593,
      "uristic": 7594,
      "projection": 7595,
      "irrational": 7596,
      "intersection": 7597,
      "compu": 7598,
      "alike": 7599,
      "mony": 7600,
      "creatures": 7601,
      "implying": 7602,
      "tensions": 7603,
      "bold": 7604,
      "shut": 7605,
      "reasonable": 7606,
      "identification": 7607,
      "emerged": 7608,
      "recognizable": 7609,
      "continual": 7610,
      "believing": 7611,
      "approached": 7612,
      "characterized": 7613,
      "deni": 7614,
      "originate": 7615,
      "Exp": 7616,
      "achieves": 7617,
      "Change": 7618,
      "punishments": 7619,
      "Project": 7620,
      "stays": 7621,
      "humor": 7622,
      "addresses": 7623,
      "manipulation": 7624,
      "deliberately": 7625,
      "encountered": 7626,
      "literary": 7627,
      "articulate": 7628,
      "suppression": 7629,
      "immort": 7630,
      "Private": 7631,
      "Frames": 7632,
      "conjunctions": 7633,
      "divisions": 7634,
      "obstacle": 7635,
      "enriching": 7636,
      "hologram": 7637,
      "vanish": 7638,
      "tactics": 7639,
      "Operant": 7640,
      "constitution": 7641,
      "welf": 7642,
      "preparing": 7643,
      "umph": 7644,
      "Pyth": 7645,
      "projectile": 7646,
      "chemistry": 7647,
      "relativ": 7648,
      "Eucli": 7649,
      "admiration": 7650,
      "Radical": 7651,
      "AM": 7652,
      "AR": 7653,
      "Bx": 7654,
      "lone": 7655,
      "pour": 7656,
      "infalli": 7657,
      "reck": 7658,
      "realizing": 7659,
      "envision": 7660,
      "encode": 7661,
      "aside": 7662,
      "beats": 7663,
      "rot": 7664,
      "sities": 7665,
      "owered": 7666,
      "coding": 7667,
      "coordin": 7668,
      "forgetting": 7669,
      "uncomfortable": 7670,
      "moon": 7671,
      "cities": 7672,
      "iling": 7673,
      "nego": 7674,
      "intact": 7675,
      "pher": 7676,
      "obs": 7677,
      "elabor": 7678,
      "fool": 7679,
      "amid": 7680,
      "compan": 7681,
      "formulation": 7682,
      "alive": 7683,
      "tele": 7684,
      "Incoherence": 7685,
      "despair": 7686,
      "wherein": 7687,
      "box": 7688,
      "forever": 7689,
      "transmit": 7690,
      "Bypass": 7691,
      "realisation": 7692,
      "Contin": 7693,
      "particulars": 7694,
      "Beyond": 7695,
      "attends": 7696,
      "lowest": 7697,
      "ossi": 7698,
      "dense": 7699,
      "denied": 7700,
      "Ask": 7701,
      "included": 7702,
      "predicting": 7703,
      "governments": 7704,
      "turned": 7705,
      "numb": 7706,
      "Dei": 7707,
      "directs": 7708,
      "filtered": 7709,
      "sentient": 7710,
      "profoundly": 7711,
      "hardly": 7712,
      "participating": 7713,
      "industry": 7714,
      "echoing": 7715,
      "replaced": 7716,
      "SeeBx": 7717,
      "extremes": 7718,
      "deciding": 7719,
      "decided": 7720,
      "constitute": 7721,
      "chaining": 7722,
      "renders": 7723,
      "convergence": 7724,
      "spiritu": 7725,
      "salvation": 7726,
      "ripples": 7727,
      "accompan": 7728,
      "precede": 7729,
      "intimate": 7730,
      "ignored": 7731,
      "glass": 7732,
      "region": 7733,
      "recovery": 7734,
      "combinations": 7735,
      "surprise": 7736,
      "heightened": 7737,
      "Identify": 7738,
      "contrari": 7739,
      "complicated": 7740,
      "gift": 7741,
      "mountain": 7742,
      "Class": 7743,
      "interfere": 7744,
      "kids": 7745,
      "Striving": 7746,
      "hemisp": 7747,
      "Predic": 7748,
      "Duality": 7749,
      "Egy": 7750,
      "Fear": 7751,
      "HE": 7752,
      "aper": 7753,
      "loud": 7754,
      "mou": 7755,
      "nour": 7756,
      "ots": 7757,
      "pitch": 7758,
      "instruct": 7759,
      "inexplic": 7760,
      "inadequacy": 7761,
      "realigning": 7762,
      "itas": 7763,
      "itations": 7764,
      "itum": 7765,
      "stones": 7766,
      "aca": 7767,
      "asm": 7768,
      "asse": 7769,
      "edges": 7770,
      "exagger": 7771,
      "uniting": 7772,
      "heuristic": 7773,
      "mpe": 7774,
      "utenberg": 7775,
      "docu": 7776,
      "rud": 7777,
      "compel": 7778,
      "compass": 7779,
      "page": 7780,
      "imer": 7781,
      "extending": 7782,
      "arian": 7783,
      "expressive": 7784,
      "grad": 7785,
      "Reg": 7786,
      "Refine": 7787,
      "cluster": 7788,
      "variance": 7789,
      "invitation": 7790,
      "separating": 7791,
      "involunt": 7792,
      "triumph": 7793,
      "abstracted": 7794,
      "fixing": 7795,
      "supposing": 7796,
      "demonstra": 7797,
      "aimed": 7798,
      "patience": 7799,
      "letter": 7800,
      "stressful": 7801,
      "punished": 7802,
      "containing": 7803,
      "resolves": 7804,
      "deeds": 7805,
      "hardship": 7806,
      "detection": 7807,
      "imposes": 7808,
      "summ": 7809,
      "Vernun": 7810,
      "transformers": 7811,
      "Mechan": 7812,
      "Reson": 7813,
      "diverge": 7814,
      "Organ": 7815,
      "scene": 7816,
      "proportional": 7817,
      "justified": 7818,
      "articul": 7819,
      "sensitivity": 7820,
      "endlessly": 7821,
      "Comb": 7822,
      "dictates": 7823,
      "molecular": 7824,
      "implementing": 7825,
      "walking": 7826,
      "adopting": 7827,
      "acceleration": 7828,
      "vulnerable": 7829,
      "collaborative": 7830,
      "recogn": 7831,
      "Empir": 7832,
      "stroke": 7833,
      "volition": 7834,
      "Scaling": 7835,
      "meridians": 7836,
      "excellent": 7837,
      "Machine": 7838,
      "legitimate": 7839,
      "ineffici": 7840,
      "Phase": 7841,
      "fashion": 7842,
      ")—": 7843,
      ",[": 7844,
      ",’": 7845,
      "Cur": 7846,
      "CMO": 7847,
      "During": 7848,
      "Har": 7849,
      "IV": 7850,
      "Moral": 7851,
      "Upon": 7852,
      "batt": 7853,
      "gating": 7854,
      "sme": 7855,
      "insu": 7856,
      "incorrect": 7857,
      "indefinitely": 7858,
      "title": 7859,
      "erase": 7860,
      "isive": 7861,
      "atmo": 7862,
      "lexi": 7863,
      "semi": 7864,
      "ash": 7865,
      "enty": 7866,
      "cop": 7867,
      "coordination": 7868,
      "dign": 7869,
      "unrelated": 7870,
      "rative": 7871,
      "ulous": 7872,
      "proach": 7873,
      "proven": 7874,
      "seldom": 7875,
      "quest": 7876,
      "locus": 7877,
      "intertw": 7878,
      "formity": 7879,
      "credi": 7880,
      "prey": 7881,
      "premature": 7882,
      "gold": 7883,
      "fulfil": 7884,
      "omnes": 7885,
      "percept": 7886,
      "perceptible": 7887,
      "posited": 7888,
      "viewpoint": 7889,
      "diction": 7890,
      "tradition": 7891,
      "commer": 7892,
      "wood": 7893,
      "varies": 7894,
      "evolved": 7895,
      "Consequently": 7896,
      "collected": 7897,
      "healers": 7898,
      "rightly": 7899,
      "Expl": 7900,
      "eases": 7901,
      "tissu": 7902,
      "ourable": 7903,
      "studied": 7904,
      "establishment": 7905,
      "circul": 7906,
      "demic": 7907,
      "Chat": 7908,
      "unify": 7909,
      "indicated": 7910,
      "currently": 7911,
      "exert": 7912,
      "ignoring": 7913,
      "optimized": 7914,
      "effortless": 7915,
      "analogies": 7916,
      "quamvis": 7917,
      "oblig": 7918,
      "legis": 7919,
      "Disrup": 7920,
      "politics": 7921,
      "accord": 7922,
      "decreases": 7923,
      "attachment": 7924,
      "flour": 7925,
      "accumulated": 7926,
      "indifference": 7927,
      "inclined": 7928,
      "shadows": 7929,
      "Universal": 7930,
      "defect": 7931,
      "democracy": 7932,
      "casting": 7933,
      "similarities": 7934,
      "prepare": 7935,
      "relaxation": 7936,
      "absorbed": 7937,
      "convincing": 7938,
      "responsibilities": 7939,
      "Multiple": 7940,
      "inquirer": 7941,
      "controversi": 7942,
      "soft": 7943,
      "reflexive": 7944,
      "marriage": 7945,
      "immense": 7946,
      "Building": 7947,
      "Gutenberg": 7948,
      "Neither": 7949,
      "Stu": 7950,
      "_The": 7951,
      "bind": 7952,
      "clock": 7953,
      "god": 7954,
      "kar": 7955,
      "leness": 7956,
      "usi": 7957,
      "ymach": 7958,
      "inconsistency": 7959,
      "tiveness": 7960,
      "lean": 7961,
      "seq": 7962,
      "assimil": 7963,
      "deem": 7964,
      "depart": 7965,
      "coexistence": 7966,
      "costs": 7967,
      "supreme": 7968,
      "arest": 7969,
      "utmost": 7970,
      "tices": 7971,
      "Thras": 7972,
      "plus": 7973,
      "relating": 7974,
      "competi": 7975,
      "compliance": 7976,
      "traces": 7977,
      "months": 7978,
      "tyrant": 7979,
      "youth": 7980,
      "idelity": 7981,
      "printed": 7982,
      "wherever": 7983,
      "bore": 7984,
      "overload": 7985,
      "extract": 7986,
      "justly": 7987,
      "subsist": 7988,
      "subordinate": 7989,
      "completed": 7990,
      "augment": 7991,
      "ager": 7992,
      "backward": 7993,
      "realistic": 7994,
      "solar": 7995,
      "shifted": 7996,
      "spent": 7997,
      "Convers": 7998,
      "confused": 7999,
      "Anxi": 8000,
      "imagery": 8001,
      "located": 8002,
      "deno": 8003,
      "objections": 8004,
      "inclusive": 8005,
      "fixes": 8006,
      "gender": 8007,
      "aiming": 8008,
      "associate": 8009,
      "Stability": 8010,
      "piano": 8011,
      "richer": 8012,
      "categorical": 8013,
      "weaker": 8014,
      "mutation": 8015,
      "commitments": 8016,
      "modulation": 8017,
      "clean": 8018,
      "rewarding": 8019,
      "Need": 8020,
      "Authentic": 8021,
      "clarifying": 8022,
      "suppressing": 8023,
      "imitations": 8024,
      "Principles": 8025,
      "verbally": 8026,
      "occupied": 8027,
      "threats": 8028,
      "classification": 8029,
      "Emotions": 8030,
      "Operational": 8031,
      "Person": 8032,
      "confirmed": 8033,
      "encrease": 8034,
      "reply": 8035,
      "bottom": 8036,
      "Testing": 8037,
      "affairs": 8038,
      "scripts": 8039,
      "Connection": 8040,
      "Complexity": 8041,
      "heavily": 8042,
      "statistical": 8043,
      "pretty": 8044,
      "ymachus": 8045,
      "Thrasymachus": 8046,
      "Anxiety": 8047,
      "50": 8048,
      "Bac": 8049,
      "Ef": 8050,
      "Iron": 8051,
      "Jour": 8052,
      "Mid": 8053,
      "Pol": 8054,
      "QU": 8055,
      "Take": 8056,
      "glance": 8057,
      "hit": 8058,
      "kill": 8059,
      "san": 8060,
      "sity": 8061,
      "scri": 8062,
      "refut": 8063,
      "resign": 8064,
      "alo": 8065,
      "isse": 8066,
      "bears": 8067,
      "rored": 8068,
      "sia": 8069,
      "coales": 8070,
      "forte": 8071,
      "divisibility": 8072,
      "perme": 8073,
      "unseen": 8074,
      "menting": 8075,
      "mentality": 8076,
      "urgency": 8077,
      "proving": 8078,
      "weave": 8079,
      "quer": 8080,
      "loose": 8081,
      "entia": 8082,
      "caution": 8083,
      "option": 8084,
      "minus": 8085,
      "minutes": 8086,
      "disgu": 8087,
      "diseases": 8088,
      "knowl": 8089,
      "sensus": 8090,
      "anymore": 8091,
      "ortex": 8092,
      "corpo": 8093,
      "plex": 8094,
      "pleased": 8095,
      "posit": 8096,
      "myths": 8097,
      "principi": 8098,
      "biased": 8099,
      "approve": 8100,
      "iller": 8101,
      "decisive": 8102,
      "capac": 8103,
      "communal": 8104,
      "signifies": 8105,
      "centered": 8106,
      "origins": 8107,
      "stuff": 8108,
      "teachers": 8109,
      "analytic": 8110,
      "analyzed": 8111,
      "requirements": 8112,
      "looked": 8113,
      "morally": 8114,
      "firmly": 8115,
      "Enlightenment": 8116,
      "partially": 8117,
      "comprehended": 8118,
      "Spino": 8119,
      "committing": 8120,
      "pursued": 8121,
      "solidi": 8122,
      "participant": 8123,
      "anchoring": 8124,
      "loosen": 8125,
      "replication": 8126,
      "aversion": 8127,
      "reshapes": 8128,
      "acquires": 8129,
      "justification": 8130,
      "articles": 8131,
      "magnetism": 8132,
      "interruption": 8133,
      "ecological": 8134,
      "graphs": 8135,
      "guilty": 8136,
      "routines": 8137,
      "parenting": 8138,
      "classify": 8139,
      "conveyed": 8140,
      "symptom": 8141,
      "replicating": 8142,
      "approximation": 8143,
      "frontal": 8144,
      "delivery": 8145,
      "undermining": 8146,
      "blockages": 8147,
      "Laws": 8148,
      "persuas": 8149,
      "pendulum": 8150,
      "endure": 8151,
      "wearable": 8152,
      "journaling": 8153,
      "concealed": 8154,
      "cros": 8155,
      "damage": 8156,
      "Archetypes": 8157,
      "benevolence": 8158,
      "Chinese": 8159,
      "prolonged": 8160,
      "computer": 8161,
      "Spinoza": 8162,
      "Fail": 8163,
      "Flexi": 8164,
      "IR": 8165,
      "Meth": 8166,
      "Pra": 8167,
      "User": 8168,
      "bright": 8169,
      "cow": 8170,
      "kers": 8171,
      "rance": 8172,
      "sad": 8173,
      "yer": 8174,
      "yrin": 8175,
      "zen": 8176,
      "inhi": 8177,
      "inser": 8178,
      "inability": 8179,
      "recourse": 8180,
      "anes": 8181,
      "alge": 8182,
      "atter": 8183,
      "atch": 8184,
      "orum": 8185,
      "bel": 8186,
      "ligi": 8187,
      "divisible": 8188,
      "unchanged": 8189,
      "essor": 8190,
      "mother": 8191,
      "absol": 8192,
      "soil": 8193,
      "ridic": 8194,
      "pography": 8195,
      "intru": 8196,
      "apple": 8197,
      "fol": 8198,
      "comme": 8199,
      "fices": 8200,
      "wills": 8201,
      "imperfections": 8202,
      "fulfilled": 8203,
      "perceptional": 8204,
      "univer": 8205,
      "ppor": 8206,
      "medication": 8207,
      "naming": 8208,
      "archy": 8209,
      "settle": 8210,
      "charges": 8211,
      "Constra": 8212,
      "multip": 8213,
      "contextually": 8214,
      "looping": 8215,
      "orders": 8216,
      "supply": 8217,
      "bounds": 8218,
      "counsel": 8219,
      "healer": 8220,
      "triangle": 8221,
      "incredi": 8222,
      "immediacy": 8223,
      "references": 8224,
      "improves": 8225,
      "Notion": 8226,
      "mirrored": 8227,
      "predicate": 8228,
      "Topography": 8229,
      "Platonic": 8230,
      "imagining": 8231,
      "rigidly": 8232,
      "resisting": 8233,
      "agreements": 8234,
      "indicator": 8235,
      "tracked": 8236,
      "respecting": 8237,
      "motivations": 8238,
      "pursuits": 8239,
      "expansive": 8240,
      "fewer": 8241,
      "conventions": 8242,
      "challenged": 8243,
      "vaas": 8244,
      "Lovaas": 8245,
      "Art": 8246,
      "Practice": 8247,
      "Ques": 8248,
      "exemplar": 8249,
      "ruling": 8250,
      "Individuality": 8251,
      "criticize": 8252,
      "straightforward": 8253,
      "axies": 8254,
      "labyrin": 8255,
      "advocates": 8256,
      "neurons": 8257,
      "encoded": 8258,
      "RAG": 8259,
      "vitality": 8260,
      "compromise": 8261,
      "methodologies": 8262,
      "Worlds": 8263,
      "nulla": 8264,
      "madness": 8265,
      "Scientific": 8266,
      "Transcendental": 8267,
      "Locke": 8268,
      "contrariety": 8269,
      "Hi": 8270,
      "Pi": 8271,
      "Pur": 8272,
      "Pot": 8273,
      "Temp": 8274,
      "Willi": 8275,
      "bul": 8276,
      "cin": 8277,
      "eu": 8278,
      "etern": 8279,
      "flaws": 8280,
      "gun": 8281,
      "io": 8282,
      "mali": 8283,
      "nal": 8284,
      "nisi": 8285,
      "vy": 8286,
      "zy": 8287,
      "restructures": 8288,
      "redirect": 8289,
      "reorganize": 8290,
      "ancies": 8291,
      "tired": 8292,
      "ensi": 8293,
      "ensu": 8294,
      "ortho": 8295,
      "edi": 8296,
      "limb": 8297,
      "suited": 8298,
      "ils": 8299,
      "nempe": 8300,
      "noted": 8301,
      "ders": 8302,
      "plans": 8303,
      "curren": 8304,
      "press": 8305,
      "Initi": 8306,
      "disappears": 8307,
      "stems": 8308,
      "jects": 8309,
      "implied": 8310,
      "somewhere": 8311,
      "logists": 8312,
      "chose": 8313,
      "actionable": 8314,
      "continuing": 8315,
      "dependencies": 8316,
      "pointed": 8317,
      "missed": 8318,
      "avoidable": 8319,
      "innermost": 8320,
      "judging": 8321,
      "negativity": 8322,
      "groundwork": 8323,
      "rising": 8324,
      "developmentally": 8325,
      "cue": 8326,
      "sky": 8327,
      "letters": 8328,
      "substanti": 8329,
      "artists": 8330,
      "weakening": 8331,
      "Perspective": 8332,
      "Perceptual": 8333,
      "anchor": 8334,
      "enhanced": 8335,
      "victim": 8336,
      "entering": 8337,
      "defend": 8338,
      "attractors": 8339,
      "elementary": 8340,
      "retained": 8341,
      "inferred": 8342,
      "geneous": 8343,
      "advantageous": 8344,
      "retro": 8345,
      "instincts": 8346,
      "reverber": 8347,
      "Master": 8348,
      "marketing": 8349,
      "approximate": 8350,
      "calculated": 8351,
      "adoption": 8352,
      "population": 8353,
      "weaknesses": 8354,
      "Early": 8355,
      "immersion": 8356,
      "detached": 8357,
      "detachment": 8358,
      "verify": 8359,
      "View": 8360,
      "galaxies": 8361,
      "leverage": 8362,
      "overlooked": 8363,
      "responsiveness": 8364,
      "resentment": 8365,
      "channels": 8366,
      "Berke": 8367,
      "sculpture": 8368,
      "injury": 8369,
      "Values": 8370,
      "cette": 8371,
      "Colle": 8372,
      "solidify": 8373,
      "Kirlian": 8374,
      "revelation": 8375,
      "Classical": 8376,
      "academic": 8377,
      "Combining": 8378,
      "Bacon": 8379,
      "William": 8380,
      "orthodox": 8381,
      "Much": 8382,
      "Pa": 8383,
      "Tech": 8384,
      "Yau": 8385,
      "_a": 8386,
      "aus": 8387,
      "brush": 8388,
      "eigh": 8389,
      "gust": 8390,
      "oct": 8391,
      "sint": 8392,
      "swit": 8393,
      "twi": 8394,
      "repul": 8395,
      "remarks": 8396,
      "reframed": 8397,
      "thematic": 8398,
      "orm": 8399,
      "itarian": 8400,
      "sting": 8401,
      "seven": 8402,
      "beat": 8403,
      "rock": 8404,
      "conservation": 8405,
      "sig": 8406,
      "dece": 8407,
      "defic": 8408,
      "cogre": 8409,
      "uned": 8410,
      "mption": 8411,
      "raises": 8412,
      "abi": 8413,
      "neces": 8414,
      "rix": 8415,
      "lomovement": 8416,
      "Whatever": 8417,
      "luck": 8418,
      "formations": 8419,
      "struck": 8420,
      "mono": 8421,
      "omit": 8422,
      "perceptive": 8423,
      "shares": 8424,
      "correlative": 8425,
      "tailo": 8426,
      "newly": 8427,
      "fade": 8428,
      "hot": 8429,
      "eping": 8430,
      "upper": 8431,
      "Real": 8432,
      "factual": 8433,
      "illam": 8434,
      "settled": 8435,
      "invite": 8436,
      "causa": 8437,
      "contextu": 8438,
      "interpretive": 8439,
      "openly": 8440,
      "athic": 8441,
      "trig": 8442,
      "incremental": 8443,
      "judged": 8444,
      "drama": 8445,
      "dramatic": 8446,
      "harmonize": 8447,
      "Deep": 8448,
      "strongest": 8449,
      "Chan": 8450,
      "Stand": 8451,
      "stressors": 8452,
      "vibratory": 8453,
      "computing": 8454,
      "computations": 8455,
      "stars": 8456,
      "religions": 8457,
      "preserved": 8458,
      "pursuing": 8459,
      "Someone": 8460,
      "clash": 8461,
      "implication": 8462,
      "rationalism": 8463,
      "resembles": 8464,
      "catch": 8465,
      "selective": 8466,
      "paradoxical": 8467,
      "dominance": 8468,
      "spiration": 8469,
      "correspondent": 8470,
      "cosmology": 8471,
      "trend": 8472,
      "extensions": 8473,
      "tiny": 8474,
      "recommended": 8475,
      "scarcity": 8476,
      "categorize": 8477,
      "simplify": 8478,
      "Others": 8479,
      "thored": 8480,
      "briefly": 8481,
      "gestures": 8482,
      "Secondly": 8483,
      "civilisation": 8484,
      "ritual": 8485,
      "granted": 8486,
      "convinced": 8487,
      "precedent": 8488,
      "potentiality": 8489,
      "entangled": 8490,
      "policies": 8491,
      "substitut": 8492,
      "Calabi": 8493,
      "Chap": 8494,
      "aggregate": 8495,
      "habitu": 8496,
      "episodes": 8497,
      "cruelty": 8498,
      "Loops": 8499,
      "square": 8500,
      "suicide": 8501,
      "prejudice": 8502,
      "innumerable": 8503,
      "analyses": 8504,
      "Vibrational": 8505,
      "welfare": 8506,
      "compelled": 8507,
      "Vernunft": 8508,
      "smell": 8509,
      "dignity": 8510,
      "ChatGPT": 8511,
      "boredom": 8512,
      "Irony": 8513,
      "Constraints": 8514,
      "tailored": 8515,
      "53": 8516,
      "CE": 8517,
      "Cer": 8518,
      "Car": 8519,
      "Edu": 8520,
      "Public": 8521,
      "Rig": 8522,
      "fading": 8523,
      "mê": 8524,
      "mated": 8525,
      "prud": 8526,
      "swi": 8527,
      "tant": 8528,
      "ée": 8529,
      "indefinite": 8530,
      "repre": 8531,
      "ana": 8532,
      "tit": 8533,
      "tius": 8534,
      "enforce": 8535,
      "enjo": 8536,
      "enlightenment": 8537,
      "alini": 8538,
      "estern": 8539,
      "offe": 8540,
      "ité": 8541,
      "astics": 8542,
      "vehic": 8543,
      "entro": 8544,
      "entry": 8545,
      "white": 8546,
      "deformity": 8547,
      "forgotten": 8548,
      "feared": 8549,
      "urge": 8550,
      "soo": 8551,
      "magni": 8552,
      "nel": 8553,
      "ried": 8554,
      "gered": 8555,
      "emis": 8556,
      "phot": 8557,
      "idity": 8558,
      "foot": 8559,
      "fractalized": 8560,
      "tracing": 8561,
      "sample": 8562,
      "seriously": 8563,
      "patterned": 8564,
      "board": 8565,
      "pleases": 8566,
      "reinforcements": 8567,
      "priv": 8568,
      "agon": 8569,
      "agencies": 8570,
      "internalize": 8571,
      "transmission": 8572,
      "operative": 8573,
      "Conflic": 8574,
      "separates": 8575,
      "controls": 8576,
      "portray": 8577,
      "inclusion": 8578,
      "predicted": 8579,
      "negle": 8580,
      "aston": 8581,
      "asserted": 8582,
      "ranz": 8583,
      "pick": 8584,
      "male": 8585,
      "evaluations": 8586,
      "Prof": 8587,
      "Add": 8588,
      "Adjust": 8589,
      "planned": 8590,
      "depths": 8591,
      "undalini": 8592,
      "priority": 8593,
      "regulative": 8594,
      "regulatory": 8595,
      "reconfig": 8596,
      "communicative": 8597,
      "permanently": 8598,
      "exclusive": 8599,
      "dogs": 8600,
      "100": 8601,
      "Supreme": 8602,
      "genuinely": 8603,
      "amplifying": 8604,
      "reported": 8605,
      "instinctive": 8606,
      "ING": 8607,
      "plainly": 8608,
      "deduced": 8609,
      "antecedents": 8610,
      "uncovering": 8611,
      "affirms": 8612,
      "destroyed": 8613,
      "undermine": 8614,
      "manipulating": 8615,
      "blueprint": 8616,
      "deviations": 8617,
      "sufferings": 8618,
      "encompassing": 8619,
      "Identifying": 8620,
      "Wordsworth": 8621,
      "Society": 8622,
      "inertia": 8623,
      "mystery": 8624,
      "entanglement": 8625,
      "intersect": 8626,
      "concentr": 8627,
      "invented": 8628,
      "recommendations": 8629,
      "disputes": 8630,
      "Dimensions": 8631,
      "puzzle": 8632,
      "Baseline": 8633,
      "allegory": 8634,
      "antinomy": 8635,
      "Effect": 8636,
      "relativism": 8637,
      "spirituality": 8638,
      "Resonance": 8639,
      "labyrinth": 8640,
      "malice": 8641,
      "Berkeley": 8642,
      "Based": 8643,
      "DN": 8644,
      "Rhyth": 8645,
      "Sa": 8646,
      "Sens": 8647,
      "US": 8648,
      "VI": 8649,
      "binds": 8650,
      "cortex": 8651,
      "fusion": 8652,
      "rô": 8653,
      "wand": 8654,
      "inad": 8655,
      "inspiration": 8656,
      "reset": 8657,
      "reproduction": 8658,
      "anew": 8659,
      "aloud": 8660,
      "orically": 8661,
      "ingen": 8662,
      "office": 8663,
      "segment": 8664,
      "aspi": 8665,
      "exposition": 8666,
      "coach": 8667,
      "liation": 8668,
      "lized": 8669,
      "dilem": 8670,
      "permission": 8671,
      "uning": 8672,
      "unchangeable": 8673,
      "uninterrupted": 8674,
      "unavoidable": 8675,
      "cian": 8676,
      "ird": 8677,
      "queness": 8678,
      "poll": 8679,
      "ket": 8680,
      "eling": 8681,
      "aliud": 8682,
      "aliquid": 8683,
      "creations": 8684,
      "pred": 8685,
      "dissatisfaction": 8686,
      "discoura": 8687,
      "sont": 8688,
      "fluency": 8689,
      "authored": 8690,
      "foresight": 8691,
      "generic": 8692,
      "grative": 8693,
      "wasn": 8694,
      "Religi": 8695,
      "misuse": 8696,
      "misleading": 8697,
      "mediated": 8698,
      "capability": 8699,
      "capturing": 8700,
      "distinctness": 8701,
      "collectively": 8702,
      "resists": 8703,
      "transitioning": 8704,
      "coherently": 8705,
      "educated": 8706,
      "fragmentary": 8707,
      "passionate": 8708,
      "fallen": 8709,
      "directional": 8710,
      "synthe": 8711,
      "practically": 8712,
      "hesit": 8713,
      "superflu": 8714,
      "doctor": 8715,
      "progresses": 8716,
      "induce": 8717,
      "claiming": 8718,
      "190": 8719,
      "excites": 8720,
      "comparisons": 8721,
      "equipment": 8722,
      "exclude": 8723,
      "physiology": 8724,
      "eliminates": 8725,
      "touches": 8726,
      "literal": 8727,
      "borrow": 8728,
      "spiral": 8729,
      "favour": 8730,
      "frustrating": 8731,
      "presupposition": 8732,
      "cultivating": 8733,
      "availability": 8734,
      "cosmos": 8735,
      "thrives": 8736,
      "radius": 8737,
      "adopted": 8738,
      "Meta": 8739,
      "rinking": 8740,
      "convenience": 8741,
      "fortunate": 8742,
      "qualitative": 8743,
      "Functional": 8744,
      "warmth": 8745,
      "Foundation": 8746,
      "Homeo": 8747,
      "Navig": 8748,
      "Voll": 8749,
      "absolutes": 8750,
      "Chapter": 8751,
      "11": 8752,
      "23": 8753,
      "44": 8754,
      "Ben": 8755,
      "Did": 8756,
      "Energy": 8757,
      "Hu": 8758,
      "Ke": 8759,
      "Pl": 8760,
      "Rate": 8761,
      "UM": 8762,
      "aves": 8763,
      "band": 8764,
      "bent": 8765,
      "dé": 8766,
      "dull": 8767,
      "hous": 8768,
      "kundalini": 8769,
      "pack": 8770,
      "tors": 8771,
      "went": 8772,
      "ère": 8773,
      "inking": 8774,
      "inversion": 8775,
      "revision": 8776,
      "redefining": 8777,
      "rerum": 8778,
      "escal": 8779,
      "ingrained": 8780,
      "itary": 8781,
      "conversely": 8782,
      "sided": 8783,
      "extr": 8784,
      "cope": 8785,
      "covers": 8786,
      "wire": 8787,
      "unintended": 8788,
      "verted": 8789,
      "ram": 8790,
      "sul": 8791,
      "mentation": 8792,
      "urban": 8793,
      "abul": 8794,
      "dol": 8795,
      "rust": 8796,
      "noting": 8797,
      "pole": 8798,
      "byproduct": 8799,
      "cancer": 8800,
      "intermediate": 8801,
      "pless": 8802,
      "evable": 8803,
      "struction": 8804,
      "cave": 8805,
      "mination": 8806,
      "dispar": 8807,
      "song": 8808,
      "subatomic": 8809,
      "complement": 8810,
      "completing": 8811,
      "traditionally": 8812,
      "biggest": 8813,
      "conceptually": 8814,
      "voices": 8815,
      "realised": 8816,
      "readiness": 8817,
      "Weigh": 8818,
      "countries": 8819,
      "advances": 8820,
      "rises": 8821,
      "isolate": 8822,
      "Deum": 8823,
      "Develo": 8824,
      "associates": 8825,
      "Book": 8826,
      "vigil": 8827,
      "modifiers": 8828,
      "States": 8829,
      "Promp": 8830,
      "comprehen": 8831,
      "alternate": 8832,
      "conceivable": 8833,
      "modular": 8834,
      "---": 8835,
      "entirety": 8836,
      "radically": 8837,
      "proceeding": 8838,
      "appropriately": 8839,
      "answering": 8840,
      "exclusively": 8841,
      "Logic": 8842,
      "empowerment": 8843,
      "employment": 8844,
      "majority": 8845,
      "protection": 8846,
      "silent": 8847,
      "maximum": 8848,
      "sunlight": 8849,
      "embeddings": 8850,
      "Engaging": 8851,
      "disturbed": 8852,
      "twenty": 8853,
      "records": 8854,
      "affirming": 8855,
      "deadlines": 8856,
      "compelling": 8857,
      "Implic": 8858,
      "polite": 8859,
      "Shaping": 8860,
      "distraction": 8861,
      "Latency": 8862,
      "elicit": 8863,
      "Applic": 8864,
      "imprint": 8865,
      "fractured": 8866,
      "prehension": 8867,
      "milest": 8868,
      "misunderstandings": 8869,
      "enemy": 8870,
      "wickedness": 8871,
      "database": 8872,
      "arranged": 8873,
      "mitigate": 8874,
      "elevated": 8875,
      "arithmetic": 8876,
      "shorter": 8877,
      "procrastination": 8878,
      "reckon": 8879,
      "companion": 8880,
      "Refinement": 8881,
      "algebra": 8882,
      "*?": 8883,
      "Dri": 8884,
      "El": 8885,
      "Limitations": 8886,
      "Ren": 8887,
      "She": 8888,
      "Sid": 8889,
      "bond": 8890,
      "flame": 8891,
      "gas": 8892,
      "ix": 8893,
      "mask": 8894,
      "ode": 8895,
      "p_": 8896,
      "rink": 8897,
      "slower": 8898,
      "uph": 8899,
      "},": 8900,
      "recover": 8901,
      "token": 8902,
      "strain": 8903,
      "cel": 8904,
      "icians": 8905,
      "meets": 8906,
      "defici": 8907,
      "uncontrolled": 8908,
      "unusual": 8909,
      "unbroken": 8910,
      "haec": 8911,
      "ableness": 8912,
      "illed": 8913,
      "peer": 8914,
      "admits": 8915,
      "renunciation": 8916,
      "interpersonal": 8917,
      "relata": 8918,
      "caught": 8919,
      "Influ": 8920,
      "kings": 8921,
      "disjun": 8922,
      "ideam": 8923,
      "sati": 8924,
      "sonant": 8925,
      "fiable": 8926,
      "patterning": 8927,
      "extingu": 8928,
      "uniqueness": 8929,
      "critically": 8930,
      "helpless": 8931,
      "holy": 8932,
      "mainly": 8933,
      "clare": 8934,
      "Referen": 8935,
      "Recognition": 8936,
      "philosophic": 8937,
[...]
